<unk>	0
<s>	0
</s>	0
<pad>	0
on	-0
de	-1
en	-2
aa	-3
▁l	-4
▁m	-5
an	-6
es	-7
▁n	-8
▁@	-9
▁@@	-10
▁@@@	-11
▁e	-12
re	-13
▁p	-14
▁s	-15
in	-16
ou	-17
▁k	-18
▁c	-19
▁a	-20
▁d	-21
▁de	-22
er	-23
it	-24
qu	-25
ɓe	-26
▁w	-27
is	-28
▁t	-29
ii	-30
oo	-31
▁h	-32
▁f	-33
ll	-34
un	-35
ar	-36
ur	-37
or	-38
▁v	-39
▁qu	-40
ent	-41
al	-42
ir	-43
▁j	-44
▁A	-45
te	-46
ti	-47
ous	-48
▁le	-49
ol	-50
▁ko	-51
▁y	-52
▁et	-53
▁on	-54
▁ɗ	-55
il	-56
am	-57
om	-58
▁g	-59
▁ɓ	-60
▁la	-61
ee	-62
▁ma	-63
▁M	-64
di	-65
▁S	-66
our	-67
▁ɓe	-68
lla	-69
▁b	-70
ta	-71
eu	-72
ay	-73
uu	-74
▁les	-75
▁en	-76
as	-77
▁mo	-78
ɗo	-79
el	-80
▁E	-81
ant	-82
us	-83
▁à	-84
▁ka	-85
kk	-86
▁r	-87
gol	-88
im	-89
le	-90
est	-91
onn	-92
▁J	-93
▁C	-94
▁N	-95
▁un	-96
▁vous	-97
▁qui	-98
▁nde	-99
▁o	-100
▁ɓen	-101
et	-102
▁won	-103
tre	-104
▁que	-105
és	-106
▁I	-107
du	-108
▁Alla	-109
ann	-110
▁K	-111
ri	-112
▁L	-113
ez	-114
▁no	-115
ro	-116
ch	-117
ons	-118
ig	-119
em	-120
▁P	-121
ui	-122
▁é	-123
▁des	-124
▁D	-125
▁par	-126
▁ng	-127
ont	-128
ɗe	-129
▁maa	-130
and	-131
um	-132
▁sa	-133
▁ne	-134
▁pour	-135
pp	-136
▁T	-137
aw	-138
▁O	-139
ce	-140
ire	-141
me	-142
▁wa	-143
li	-144
ra	-145
▁il	-146
▁pas	-147
▁av	-148
▁au	-149
ans	-150
▁F	-151
▁Et	-152
▁re	-153
ag	-154
▁H	-155
tion	-156
▁fii	-157
eur	-158
ma	-159
▁est	-160
ell	-161
aan	-162
os	-163
▁ce	-164
ow	-165
ut	-166
si	-167
at	-168
▁si	-169
▁in	-170
ji	-171
ec	-172
ɗi	-173
▁ch	-174
ul	-175
to	-176
▁%	-177
fi	-178
▁:	-179
▁dans	-180
▁wi	-181
▁com	-182
ait	-183
tu	-184
ais	-185
▁"	-186
res	-187
ort	-188
ɓɓe	-189
▁du	-190
▁kon	-191
aaw	-192
ab	-193
eux	-194
ign	-195
ame	-196
▁«	-197
oi	-198
int	-199
ci	-200
▁{	-201
▁mi	-202
▁leur	-203
oy	-204
ouv	-205
se	-206
kko	-207
▁mon	-208
ai	-209
aak	-210
rand	-211
▁Y	-212
▁sur	-213
ment	-214
au	-215
ers	-216
▁Il	-217
orde	-218
▁je	-219
▁maɓɓe	-220
nde	-221
▁Ko	-222
▁une	-223
que	-224
ée	-225
▁pl	-226
▁Ɓ	-227
▁}	-228
▁kadi	-229
fo	-230
▁se	-231
▁pr	-232
tin	-233
té	-234
▁dé	-235
mi	-236
ac	-237
▁go	-238
▁W	-239
ien	-240
▁R	-241
ot	-242
▁vo	-243
▁nous	-244
▁pro	-245
nd	-246
oore	-247
▁V	-248
ude	-249
▁-	-250
tes	-251
▁an	-252
▁ré	-253
av	-254
ils	-255
name	-256
fox	-257
irefox	-258
▁lui	-259
gal	-260
brand	-261
▁B	-262
▁woni	-263
ation	-264
ooɓe	-265
▁men	-266
ité	-267
▁makko	-268
ill	-269
ement	-270
iy	-271
▁ser	-272
▁<	-273
end	-274
ala	-275
▁dis	-276
ors	-277
▁Allah	-278
ge	-279
▁con	-280
dd	-281
▁he	-282
ƴƴ	-283
ère	-284
▁su	-285
gu	-286
▁ils	-287
▁G	-288
oow	-289
age	-290
▁tou	-291
ate	-292
ank	-293
ieu	-294
▁yo	-295
▁dit	-296
▁ar	-297
ter	-298
ux	-299
▁taw	-300
ah	-301
▁har	-302
▁ɗun	-303
▁Se	-304
ite	-305
aaɓe	-306
imɓe	-307
aade	-308
▁avec	-309
iɗ	-310
bu	-311
pr	-312
▁jo	-313
▁non	-314
▁ɗen	-315
tor	-316
▁nden	-317
▁votre	-318
▁nd	-319
▁!	-320
eew	-321
je	-322
ér	-323
tr	-324
ond	-325
ani	-326
▁(	-327
mes	-328
omɗ	-329
▁al	-330
▁Nous	-331
▁ɗin	-332
▁ha	-333
les	-334
onc	-335
jo	-336
</	-337
aali	-338
▁ceux	-339
▁plus	-340
▁waɗ	-341
iss	-342
▁Firefox	-343
aam	-344
imm	-345
igneur	-346
▁Dieu	-347
▁Men	-348
ew	-349
ata	-350
lle	-351
▁po	-352
ess	-353
unde	-354
▁nder	-355
▁Si	-356
▁Seigneur	-357
▁?	-358
▁ou	-359
aama	-360
▁Al	-361
▁ngal	-362
éc	-363
ande	-364
▁sont	-365
▁mais	-366
▁ac	-367
▁wan	-368
▁Mo	-369
▁kala	-370
▁moƴƴ	-371
ere	-372
aab	-373
ong	-374
▁cel	-375
▁so	-376
▁On	-377
▁am	-378
▁gomɗ	-379
▁tr	-380
isaa	-381
ie	-382
▁ad	-383
▁été	-384
▁haa	-385
ɓɓ	-386
ré	-387
▁Iisaa	-388
oc	-389
▁app	-390
ff	-391
ens	-392
iri	-393
▁mun	-394
▁U	-395
▁donn	-396
▁yimɓe	-397
tions	-398
ès	-399
▁peu	-400
▁ndee	-401
ugol	-402
tee	-403
▁tu	-404
ient	-405
ins	-406
▁Joo	-407
▁hoore	-408
lé	-409
aaɗo	-410
▁woo	-411
ɗa	-412
elle	-413
▁point	-414
hort	-415
▁Le	-416
▁Q	-417
ants	-418
ind	-419
▁ñ	-420
iv	-421
▁fait	-422
hu	-423
lis	-424
▁jour	-425
ɗon	-426
irde	-427
ru	-428
▁fo	-429
▁yi	-430
▁fow	-431
▁ann	-432
▁En	-433
▁comme	-434
aient	-435
ésus	-436
▁Jésus	-437
go	-438
▁ye	-439
ne	-440
ke	-441
".	-442
▁ɓur	-443
▁»	-444
iti	-445
ateur	-446
▁son	-447
▁i	-448
▁ɗi	-449
▁*	-450
▁car	-451
ang	-452
annde	-453
▁ent	-454
ette	-455
app	-456
1$	-457
cher	-458
aɗ	-459
▁kam	-460
ées	-461
▁éta	-462
▁ngol	-463
ue	-464
uv	-465
être	-466
no	-467
ad	-468
ance	-469
▁imm	-470
éri	-471
▁donc	-472
▁mb	-473
▁oo	-474
ellet	-475
erre	-476
rent	-477
agol	-478
▁ƴ	-479
▁ngam	-480
ɗaa	-481
Alla	-482
▁goo	-483
fin	-484
▁u	-485
▁cer	-486
oowo	-487
▁Ɓe	-488
ist	-489
fic	-490
▁ɲ	-491
▁hom	-492
▁bien	-493
uutor	-494
▁wo	-495
uis	-496
uɗo	-497
▁laa	-498
Allah	-499
ito	-500
▁to	-501
▁eux	-502
vous	-503
bo	-504
▁te	-505
▁ɗum	-506
▁kono	-507
eau	-508
uɓe	-509
▁aux	-510
oni	-511
aire	-512
▁ley	-513
▁hin	-514
che	-515
▁Mais	-516
tilis	-517
ble	-518
for	-519
..	-520
ira	-521
▁Je	-522
▁as	-523
▁conn	-524
▁waaw	-525
▁me	-526
aal	-527
▁comp	-528
▁vos	-529
anng	-530
▁cro	-531
.»	-532
...	-533
ɗɗ	-534
yn	-535
lo	-536
▁lan	-537
▁mar	-538
▁&	-539
oir	-540
oll	-541
ine	-542
aare	-543
une	-544
den	-545
▁ex	-546
ka	-547
all	-548
rer	-549
▁tous	-550
tres	-551
▁ont	-552
ni	-553
▁heɓ	-554
▁hara	-555
tii	-556
sion	-557
say	-558
▁min	-559
▁Joomi	-560
ême	-561
ono	-562
▁ke	-563
èrent	-564
▁.	-565
anko	-566
mo	-567
▁Ɗ	-568
▁leurs	-569
era	-570
▁gomɗin	-571
aani	-572
▁Car	-573
▁celui	-574
anii	-575
id	-576
ph	-577
▁ca	-578
irent	-579
eurs	-580
ts	-581
tt	-582
aut	-583
▁An	-584
Name	-585
tiv	-586
▁hi	-587
Ko	-588
wa	-589
itii	-590
▁%1$	-591
bl	-592
▁hu	-593
ataa	-594
omp	-595
aande	-596
▁$	-597
erm	-598
ɗɗo	-599
▁nom	-600
▁wanaa	-601
▁maw	-602
▁mis	-603
su	-604
▁cont	-605
▁Ma	-606
▁acc	-607
▁dev	-608
▁leydi	-609
▁jam	-610
▁tout	-611
▁cette	-612
▁hay	-613
▁sabu	-614
ion	-615
▁chos	-616
▁jokk	-617
▁pri	-618
aaji	-619
▁env	-620
▁do	-621
da	-622
▁ton	-623
ussi	-624
▁rew	-625
près	-626
."	-627
▁ni	-628
ini	-629
ces	-630
mp	-631
▁Ch	-632
aaka	-633
ord	-634
▁être	-635
ple	-636
▁ses	-637
▁La	-638
illa	-639
▁ta	-640
▁amen	-641
eel	-642
▁Vous	-643
▁mal	-644
▁see	-645
▁ci	-646
▁tra	-647
arg	-648
noo	-649
▁rép	-650
▁comm	-651
▁gr	-652
la	-653
rez	-654
▁hakk	-655
ki	-656
abb	-657
▁vers	-658
▁In	-659
uur	-660
▁yam	-661
imo	-662
▁quel	-663
cri	-664
▁dem	-665
▁ɗon	-666
able	-667
▁Onsay	-668
▁Mi	-669
▁walla	-670
avig	-671
▁avons	-672
ass	-673
dude	-674
▁jey	-675
onne	-676
▁Ils	-677
Short	-678
ende	-679
▁Les	-680
▁ɗoo	-681
ondir	-682
aɓɓ	-683
▁afin	-684
ier	-685
▁naa	-686
▁aussi	-687
ide	-688
▁ena	-689
dit	-690
▁Re	-691
▁pu	-692
zilla	-693
▁nj	-694
lic	-695
ères	-696
▁ɗe	-697
iima	-698
▁gens	-699
▁hum	-700
="	-701
are	-702
ps	-703
▁jus	-704
jj	-705
▁trouv	-706
innde	-707
▁sera	-708
eb	-709
▁juu	-710
▁ɓey	-711
▁Kono	-712
taa	-713
uuji	-714
▁onon	-715
▁fe	-716
▁haray	-717
tir	-718
▁serv	-719
enu	-720
min	-721
▁té	-722
asii	-723
oup	-724
▁bon	-725
▁%(	-726
akk	-727
▁waɗi	-728
▁quand	-729
▁moi	-730
ex	-731
rist	-732
▁wano	-733
▁immorde	-734
ShortName	-735
▁wonde	-736
innd	-737
tant	-738
▁yah	-739
ipp	-740
▁Ñ	-741
ole	-742
▁ge	-743
▁navig	-744
orte	-745
ana	-746
▁pers	-747
▁,	-748
aaɗe	-749
▁était	-750
▁ndin	-751
endre	-752
ve	-753
▁cela	-754
annd	-755
▁Pellet	-756
aɓ	-757
ure	-758
ard	-759
ool	-760
aaki	-761
▁low	-762
masii	-763
endu	-764
▁dés	-765
masiihu	-766
▁jaab	-767
▁lors	-768
ara	-769
unoo	-770
ace	-771
iiɗ	-772
ello	-773
▁hakkunde	-774
ko	-775
▁Ce	-776
▁vér	-777
short	-778
air	-779
▁kamm	-780
iiɓe	-781
out	-782
tere	-783
▁kis	-784
▁may	-785
▁ɓuri	-786
str	-787
co	-788
att	-789
gle	-790
▁Qu	-791
eede	-792
iiɗo	-793
firefox	-794
cip	-795
▁vie	-796
con	-797
diy	-798
▁wonn	-799
▁alaa	-800
▁nouv	-801
▁ɗee	-802
▁few	-803
▁jog	-804
ction	-805
bre	-806
eso	-807
inde	-808
▁No	-809
">	-810
insi	-811
inn	-812
▁Lui	-813
▁Ɓay	-814
▁avez	-815
▁cons	-816
▁utilis	-817
tific	-818
▁“	-819
▁and	-820
▁choses	-821
uma	-822
▁sav	-823
▁hiɓe	-824
▁même	-825
ille	-826
▁alors	-827
▁terre	-828
uy	-829
alis	-830
▁vérité	-831
rit	-832
ête	-833
ence	-834
mb	-835
▁hiɗ	-836
ese	-837
aawo	-838
▁es	-839
teur	-840
▁wel	-841
▁iw	-842
▁peut	-843
iil	-844
▁Makko	-845
▁dow	-846
▁tem	-847
▁contre	-848
ug	-849
imp	-850
▁fr	-851
ques	-852
▁ina	-853
cc	-854
una	-855
▁wood	-856
ina	-857
ino	-858
ori	-859
▁Nde	-860
ap	-861
sp	-862
ddu	-863
uiv	-864
aajo	-865
anaa	-866
▁moo	-867
▁di	-868
▁É	-869
aaf	-870
▁ass	-871
▁ces	-872
▁sou	-873
▁sans	-874
▁cor	-875
▁notre	-876
▁toute	-877
tern	-878
▁pré	-879
tude	-880
tionn	-881
êtes	-882
▁ay	-883
eure	-884
ante	-885
aiss	-886
strong	-887
▁tam	-888
▁avait	-889
là	-890
inii	-891
af	-892
aaɓ	-893
jet	-894
erv	-895
ngal	-896
aux	-897
▁suu	-898
aaƴ	-899
▁Or	-900
▁fem	-901
▁deux	-902
▁;	-903
kii	-904
▁Ne	-905
▁éc	-906
ɗit	-907
▁goll	-908
▁page	-909
tifi	-910
▁#	-911
acc	-912
pte	-913
▁goong	-914
og	-915
▁li	-916
▁cour	-917
▁croy	-918
▁envoy	-919
▁peuple	-920
▁où	-921
▁hon	-922
▁pouv	-923
▁huunde	-924
▁De	-925
ages	-926
▁aur	-927
▁passe	-928
ème	-929
▁for	-930
brandShortName	-931
ain	-932
daa	-933
▁part	-934
▁Almasiihu	-935
▁kanko	-936
▁dar	-937
▁données	-938
ert	-939
enant	-940
▁tawii	-941
aŋ	-942
gis	-943
2$	-944
ayl	-945
enn	-946
aaku	-947
▁mort	-948
▁Su	-949
ayn	-950
unn	-951
▁Am	-952
▁Yah	-953
éch	-954
▁soit	-955
ges	-956
tol	-957
▁fi	-958
▁hino	-959
elles	-960
lément	-961
▁toi	-962
▁Nul	-963
▁waawi	-964
eji	-965
▁ɓer	-966
▁faire	-967
uum	-968
ites	-969
ariy	-970
regis	-971
▁ndun	-972
▁suiv	-973
▁après	-974
▁Alors	-975
ile	-976
ations	-977
arde	-978
▁auc	-979
▁ren	-980
▁himo	-981
tic	-982
▁sé	-983
eeji	-984
▁seu	-985
▁site	-986
▁parmi	-987
▁ob	-988
ribu	-989
▁pellet	-990
éta	-991
▁Awa	-992
▁cré	-993
▁yiy	-994
forma	-995
▁aduna	-996
okk	-997
pito	-998
enir	-999
▁all	-1000
lec	-1001
otoo	-1002
prit	-1003
mir	-1004
aamu	-1005
▁pre	-1006
aawol	-1007
▁wonaa	-1008
▁Mozilla	-1009
▁ver	-1010
▁tawi	-1011
rim	-1012
▁Par	-1013
omme	-1014
▁gooto	-1015
éric	-1016
▁sec	-1017
▁ɗaɓɓ	-1018
▁ɓaawo	-1019
tal	-1020
âti	-1021
▁réc	-1022
▁yal	-1023
esɗit	-1024
ourn	-1025
▁suis	-1026
bb	-1027
gue	-1028
▁elle	-1029
ités	-1030
op	-1031
awi	-1032
▁ainsi	-1033
ndo	-1034
tit	-1035
▁fu	-1036
iiɓ	-1037
▁ngun	-1038
10	-1039
ati	-1040
ooje	-1041
▁joo	-1042
▁ord	-1043
▁desc	-1044
▁certific	-1045
ise	-1046
▁Aɗa	-1047
▁toutes	-1048
▁yamir	-1049
▁Sa	-1050
▁lam	-1051
pos	-1052
anoo	-1053
uutoro	-1054
iɗɗo	-1055
léch	-1056
▁voi	-1057
▁châti	-1058
▁ɗo	-1059
▁Ann	-1060
resse	-1061
▁tee	-1062
▁lowre	-1063
endant	-1064
par	-1065
▁maj	-1066
illez	-1067
▁fut	-1068
▁wota	-1069
vé	-1070
igne	-1071
▁ins	-1072
▁Pour	-1073
▁Kanko	-1074
▁autres	-1075
▁enf	-1076
▁goonga	-1077
els	-1078
▁seront	-1079
▁bonn	-1080
▁goɗɗo	-1081
▁hinaa	-1082
▁dirent	-1083
ya	-1084
écur	-1085
▁att	-1086
use	-1087
fier	-1088
▁too	-1089
▁hommes	-1090
ffi	-1091
▁kamɓe	-1092
ument	-1093
▁keɓe	-1094
▁autre	-1095
aaj	-1096
ɗun	-1097
anke	-1098
▁faal	-1099
span	-1100
▁étaient	-1101
cl	-1102
▁là	-1103
irɗe	-1104
▁yiɗ	-1105
ingol	-1106
urent	-1107
ari	-1108
ois	-1109
tez	-1110
▁Au	-1111
anɗe	-1112
uuhu	-1113
▁mom	-1114
uusu	-1115
▁laawol	-1116
its	-1117
▁Dis	-1118
▁jusqu	-1119
eeje	-1120
▁ngon	-1121
▁nokk	-1122
œur	-1123
ddit	-1124
oule	-1125
▁entre	-1126
ree	-1127
vent	-1128
▁%2$	-1129
▁pos	-1130
▁enco	-1131
▁wall	-1132
▁ayant	-1133
▁homme	-1134
▁fais	-1135
▁jun	-1136
▁feew	-1137
▁yeeso	-1138
yp	-1139
▁ongle	-1140
▁sécur	-1141
pt	-1142
ɗii	-1143
▁mes	-1144
▁perm	-1145
▁êtes	-1146
▁‹	-1147
eri	-1148
maa	-1149
▁He	-1150
▁maay	-1151
ref	-1152
▁All	-1153
▁Que	-1154
▁rés	-1155
iment	-1156
euillez	-1157
lécharg	-1158
ga	-1159
omm	-1160
entre	-1161
▁ngoo	-1162
▁Yahuu	-1163
iɓɓe	-1164
quer	-1165
quoi	-1166
▁fen	-1167
▁web	-1168
▁tuma	-1169
conque	-1170
▁gomɗimɓe	-1171
one	-1172
▁tag	-1173
▁certificat	-1174
▁Un	-1175
▁cra	-1176
▁mus	-1177
▁loow	-1178
▁miɗo	-1179
▁péch	-1180
aar	-1181
▁tig	-1182
▁ƴeew	-1183
oul	-1184
▁nii	-1185
▁sal	-1186
anngorde	-1187
rir	-1188
▁fee	-1189
▁sel	-1190
▁wow	-1191
▁jaabii	-1192
omb	-1193
▁co	-1194
anta	-1195
▁per	-1196
▁rec	-1197
ano	-1198
etee	-1199
aires	-1200
issez	-1201
▁hello	-1202
▁woodani	-1203
).	-1204
inaa	-1205
tall	-1206
▁foi	-1207
!»	-1208
aas	-1209
▁encore	-1210
▁répond	-1211
dam	-1212
▁ref	-1213
essag	-1214
pprim	-1215
▁Christ	-1216
st	-1217
val	-1218
▁nu	-1219
uus	-1220
aake	-1221
aako	-1222
▁href	-1223
▁sais	-1224
▁kammu	-1225
▁châtiment	-1226
▁ell	-1227
▁Puis	-1228
▁huutor	-1229
▁vis	-1230
én	-1231
uub	-1232
ivre	-1233
tain	-1234
▁vra	-1235
ocument	-1236
▁devant	-1237
▁navigateur	-1238
?»	-1239
aî	-1240
.</	-1241
ela	-1242
too	-1243
uuɗ	-1244
▁imp	-1245
ôt	-1246
▁ɓee	-1247
▁modu	-1248
▁rapp	-1249
▁certes	-1250
▁parole	-1251
ak	-1252
aay	-1253
▁grâ	-1254
▁reç	-1255
▁Ɓey	-1256
ankee	-1257
▁laaɓ	-1258
▁mawn	-1259
▁prés	-1260
ib	-1261
ob	-1262
iiɗno	-1263
▁kuu	-1264
%1$	-1265
ook	-1266
▁cu	-1267
uure	-1268
▁compte	-1269
iim	-1270
▁disp	-1271
dde	-1272
tike	-1273
▁div	-1274
▁Tawi	-1275
▁ciel	-1276
▁dont	-1277
▁sort	-1278
Il	-1279
des	-1280
▁Tu	-1281
dent	-1282
▁kan	-1283
ɗen	-1284
ique	-1285
▁rien	-1286
miraaɗo	-1287
▁cœur	-1288
utilis	-1289
ions	-1290
▁hiɗon	-1291
▁lepte	-1292
jour	-1293
▁haw	-1294
▁wonii	-1295
▁tor	-1296
activ	-1297
▁Amen	-1298
▁jooni	-1299
jou	-1300
ète	-1301
▁ab	-1302
abbe	-1303
▁fof	-1304
▁ouv	-1305
▁innde	-1306
▁jamaa	-1307
tn	-1308
▁ŋ	-1309
lus	-1310
▁So	-1311
▁mu	-1312
aalib	-1313
tugol	-1314
▁tooñ	-1315
▁Kala	-1316
▁arri	-1317
%(	-1318
▁#1	-1319
reur	-1320
ariya	-1321
irgol	-1322
▁avant	-1323
▁mé	-1324
orɗe	-1325
▁sem	-1326
sible	-1327
▁Vo	-1328
▁res	-1329
▁témo	-1330
▁Joomiraaɗo	-1331
>.	-1332
▁‘	-1333
ilà	-1334
ing	-1335
▁naam	-1336
▁monde	-1337
ern	-1338
▁goɗ	-1339
▁tun	-1340
▁mari	-1341
▁puis	-1342
registre	-1343
Ch	-1344
▁tigi	-1345
fficher	-1346
but	-1347
▁Ng	-1348
▁Aay	-1349
▁fich	-1350
formations	-1351
▁App	-1352
▁golle	-1353
jus	-1354
ange	-1355
awto	-1356
▁hul	-1357
▁nombre	-1358
▁Yiy	-1359
▁ɓay	-1360
▁data	-1361
▁honɗun	-1362
bli	-1363
▁véri	-1364
▁demande	-1365
▁Yahuudiy	-1366
opp	-1367
▁Ar	-1368
▁tro	-1369
fs	-1370
▁mot	-1371
▁priv	-1372
▁Maaku	-1373
▁selon	-1374
▁humpito	-1375
iez	-1376
tag	-1377
▁bar	-1378
▁Ɓen	-1379
▁parce	-1380
dii	-1381
▁Min	-1382
▁Une	-1383
▁wowl	-1384
▁sites	-1385
ama	-1386
faa	-1387
usal	-1388
▁aaf	-1389
▁pris	-1390
▁œ	-1391
ense	-1392
▁ƴet	-1393
▁conf	-1394
▁donné	-1395
▁Cer	-1396
▁inc	-1397
▁rep	-1398
▁temps	-1399
▁pi	-1400
▁nos	-1401
▁Père	-1402
▁fiil	-1403
▁wonnde	-1404
▁eff	-1405
▁Messag	-1406
ale	-1407
▁gui	-1408
▁méc	-1409
▁rut	-1410
ateurs	-1411
▁taalib	-1412
▁cieux	-1413
▁grand	-1414
▁ti	-1415
▁saa	-1416
▁dire	-1417
▁Sariya	-1418
th	-1419
enez	-1420
▁add	-1421
homme	-1422
▁ɓerɗe	-1423
▁!"	-1424
▁geese	-1425
vo	-1426
iens	-1427
▁ret	-1428
▁nodd	-1429
▁Veuillez	-1430
gi	-1431
ddi	-1432
eut	-1433
nii	-1434
▁ho	-1435
▁Mar	-1436
▁awa	-1437
▁dro	-1438
▁okk	-1439
▁prof	-1440
oriima	-1441
▁étant	-1442
▁moƴƴere	-1443
kaa	-1444
voy	-1445
éra	-1446
intin	-1447
ommes	-1448
▁ñiiɓ	-1449
▁recher	-1450
uro	-1451
irta	-1452
▁sign	-1453
SL	-1454
aano	-1455
iree	-1456
même	-1457
▁der	-1458
itorde	-1459
▁val	-1460
Christ	-1461
ente	-1462
puis	-1463
▁Mis	-1464
▁deb	-1465
▁fer	-1466
▁Qui	-1467
▁ress	-1468
anc	-1469
aasi	-1470
▁jaɓ	-1471
▁personn	-1472
ft	-1473
ɓi	-1474
▁Ƴ	-1475
aynoo	-1476
rreur	-1477
ɓo	-1478
amè	-1479
loc	-1480
iraa	-1481
▁pay	-1482
▁appel	-1483
▁discip	-1484
▁X	-1485
ink	-1486
▁ceŋ	-1487
▁taƴ	-1488
ottin	-1489
▁premi	-1490
▁disciples	-1491
▁wanngorde	-1492
ets	-1493
▁sar	-1494
▁honn	-1495
▁jann	-1496
▁yiɗi	-1497
▁injus	-1498
▁gomɗinal	-1499
awn	-1500
ull	-1501
uno	-1502
ents	-1503
▁sada	-1504
▁maaɗa	-1505
▁grande	-1506
mé	-1507
fait	-1508
iste	-1509
▁hew	-1510
▁nan	-1511
▁njo	-1512
▁ñal	-1513
ser	-1514
▁œuv	-1515
▁fois	-1516
▁timm	-1517
br	-1518
ég	-1519
fer	-1520
ync	-1521
emin	-1522
êmes	-1523
▁prop	-1524
▁femme	-1525
▁grâce	-1526
▁maint	-1527
▁ordin	-1528
▁Tiiɗno	-1529
do	-1530
ik	-1531
jà	-1532
ition	-1533
▁wata	-1534
▁ɗiɗi	-1535
▁aucun	-1536
▁inter	-1537
▁nel	-1538
▁ɗan	-1539
▁servit	-1540
mar	-1541
ftin	-1542
▁Mom	-1543
▁Gomɗ	-1544
▁maison	-1545
▁Aayeeje	-1546
▁contenu	-1547
▁nouveau	-1548
▁sécurité	-1549
ett	-1550
tte	-1551
▁fils	-1552
▁jours	-1553
▁frères	-1554
ché	-1555
uubu	-1556
▁mess	-1557
▁wuur	-1558
oya	-1559
▁(%	-1560
▁Dé	-1561
andu	-1562
nous	-1563
oyez	-1564
▁yew	-1565
ftere	-1566
▁Alaa	-1567
▁Ceux	-1568
▁déjà	-1569
▁fonc	-1570
lication	-1571
▁Is	-1572
▁faw	-1573
▁seŋ	-1574
▁hari	-1575
▁appare	-1576
▁privée	-1577
▁croient	-1578
?"	-1579
▁mee	-1580
▁sujet	-1581
▁pouvez	-1582
ime	-1583
uturo	-1584
▁Muus	-1585
▁holl	-1586
▁mang	-1587
▁taalibaaɓe	-1588
gg	-1589
▁ndi	-1590
ption	-1591
sprit	-1592
▁croyants	-1593
ɗin	-1594
▁baɗ	-1595
▁loi	-1596
ables	-1597
▁fuɗɗ	-1598
otooɓe	-1599
▁yeddu	-1600
ankeeɓe	-1601
ɲɲ	-1602
âmes	-1603
▁Pro	-1604
▁dou	-1605
▁moƴƴi	-1606
▁Muusaa	-1607
▁maande	-1608
▁onglets	-1609
▁annd	-1610
▁proph	-1611
▁enfants	-1612
▁vraiment	-1613
▁?"	-1614
roid	-1615
ture	-1616
▁SSL	-1617
▁ari	-1618
urmin	-1619
▁ɲaaw	-1620
eteeɗo	-1621
▁chose	-1622
▁neɗɗo	-1623
eɓe	-1624
ice	-1625
aahu	-1626
▁aɗa	-1627
▁cru	-1628
▁juuɗe	-1629
▁mooɗon	-1630
rec	-1631
▁iim	-1632
▁Ñal	-1633
▁waaj	-1634
▁confi	-1635
▁lorsque	-1636
▁descendre	-1637
▁quiconque	-1638
▁navigation	-1639
ver	-1640
duɗo	-1641
urme	-1642
▁fir	-1643
▁tan	-1644
incip	-1645
tagol	-1646
pprimer	-1647
▁chemin	-1648
▁depuis	-1649
▁iimeel	-1650
abel	-1651
inte	-1652
oton	-1653
issant	-1654
eer	-1655
url	-1656
ïse	-1657
bles	-1658
ooji	-1659
▁jipp	-1660
▁sikk	-1661
▁cause	-1662
dentifi	-1663
lectionn	-1664
▁fichier	-1665
urnd	-1666
▁dir	-1667
▁haq	-1668
torde	-1669
▁Fils	-1670
▁Moïse	-1671
ondiral	-1672
fér	-1673
▁Jaaɓ	-1674
▁maaki	-1675
▁envoyé	-1676
▁quelqu	-1677
▁sommes	-1678
▁personne	-1679
▁it	-1680
irii	-1681
▁Imp	-1682
ettre	-1683
autres	-1684
▁Allaahu	-1685
▁maintenant	-1686
ront	-1687
▁char	-1688
▁finnde	-1689
gel	-1690
ran	-1691
ten	-1692
▁déf	-1693
▁nat	-1694
▁majj	-1695
▁wind	-1696
▁ɗiɗo	-1697
▁ɗuuɗ	-1698
▁jamais	-1699
▁Nulaaɗo	-1700
▁miséric	-1701
yi	-1702
▁1	-1703
aaru	-1704
ures	-1705
uuli	-1706
▁Ruuhu	-1707
▁majji	-1708
▁parti	-1709
ub	-1710
onde	-1711
▁mum	-1712
▁naf	-1713
▁daaƴ	-1714
▁peew	-1715
▁connex	-1716
uɓɓ	-1717
book	-1718
iiɗe	-1719
ital	-1720
▁poo	-1721
▁suɓ	-1722
oulez	-1723
▁saare	-1724
RL	-1725
ane	-1726
ila	-1727
▁ngo	-1728
ieurs	-1729
▁Gomɗii	-1730
▁sadaka	-1731
vi	-1732
lig	-1733
iiji	-1734
orta	-1735
▁ici	-1736
label	-1737
▁Baab	-1738
▁avoir	-1739
▁debbo	-1740
▁seule	-1741
▁suudu	-1742
acebook	-1743
dé	-1744
ɗoo	-1745
▁war	-1746
▁cher	-1747
▁derni	-1748
eeɓ	-1749
aari	-1750
hors	-1751
▁dép	-1752
angol	-1753
avons	-1754
En	-1755
Si	-1756
der	-1757
ume	-1758
vel	-1759
▁Pa	-1760
▁connaiss	-1761
ey	-1762
lol	-1763
urm	-1764
asse	-1765
ayno	-1766
elui	-1767
▁Himo	-1768
Esprit	-1769
▁savoir	-1770
▁Afficher	-1771
▁pourquoi	-1772
▁connexion	-1773
▁2	-1774
oto	-1775
▁Jui	-1776
▁ven	-1777
ertin	-1778
loire	-1779
▁haan	-1780
▁hool	-1781
▁seul	-1782
▁ju	-1783
▁vi	-1784
endi	-1785
ître	-1786
▁soi	-1787
▁heew	-1788
▁prom	-1789
▁teel	-1790
▁vien	-1791
▁Momtu	-1792
▁probl	-1793
▁trouvé	-1794
▁lo	-1795
otooɗo	-1796
urndan	-1797
▁Livre	-1798
▁dehors	-1799
▁fewndo	-1800
iiw	-1801
ype	-1802
▁ép	-1803
aana	-1804
▁ado	-1805
▁ple	-1806
ungal	-1807
▁mani	-1808
▁ndiy	-1809
▁reçu	-1810
▁kammuuli	-1811
▁plusieurs	-1812
▁ég	-1813
ngol	-1814
▁aff	-1815
▁huu	-1816
▁sah	-1817
eront	-1818
▁ques	-1819
▁sacri	-1820
▁avaient	-1821
▁quelque	-1822
▁miséricorde	-1823
arn	-1824
▁hee	-1825
▁Celui	-1826
▁Ɓeydu	-1827
amètres	-1828
▁disant	-1829
▁emp	-1830
illes	-1831
uvais	-1832
▁andi	-1833
▁veut	-1834
▁honno	-1835
▁mauvais	-1836
ham	-1837
til	-1838
▁Ré	-1839
▁Té	-1840
ordi	-1841
▁mul	-1842
▁voy	-1843
allal	-1844
▁daal	-1845
▁juul	-1846
▁père	-1847
mozilla	-1848
dra	-1849
etr	-1850
itor	-1851
lusa	-1852
▁cet	-1853
mêmes	-1854
uulusa	-1855
ellement	-1856
▁princip	-1857
ton	-1858
▁kaɓ	-1859
▁tes	-1860
anndu	-1861
▁port	-1862
▁trans	-1863
▁Puulusa	-1864
be	-1865
aque	-1866
eele	-1867
▁kun	-1868
▁sauv	-1869
ossible	-1870
▁ɓeydit	-1871
▁recherche	-1872
fié	-1873
mis	-1874
usc	-1875
▁fam	-1876
▁beau	-1877
▁parl	-1878
▁sakk	-1879
▁tiiɗ	-1880
▁kisal	-1881
▁accomp	-1882
ita	-1883
▁hal	-1884
▁laamu	-1885
▁winnd	-1886
▁informations	-1887
▁».	-1888
oles	-1889
oojo	-1890
▁aut	-1891
▁mag	-1892
Brand	-1893
ribut	-1894
sions	-1895
▁commun	-1896
▁wonaali	-1897
▁Ac	-1898
▁gu	-1899
oode	-1900
▁jal	-1901
▁jug	-1902
▁Holl	-1903
otaako	-1904
▁mayre	-1905
ds	-1906
ip	-1907
▁bo	-1908
▁duu	-1909
essay	-1910
teurs	-1911
▁disc	-1912
▁jaaɓ	-1913
▁corps	-1914
▁mécré	-1915
▁tabbe	-1916
istance	-1917
ordieux	-1918
Is	-1919
oun	-1920
▁Yam	-1921
▁den	-1922
▁kaa	-1923
▁pard	-1924
▁wayl	-1925
▁Télécharg	-1926
adi	-1927
▁Ta	-1928
ource	-1929
▁comb	-1930
▁lowe	-1931
▁sous	-1932
▁connec	-1933
sé	-1934
tore	-1935
▁Con	-1936
▁jee	-1937
▁mii	-1938
▁lieu	-1939
onngol	-1940
▁Terre	-1941
esɗitin	-1942
▁faites	-1943
▁vu	-1944
▁baab	-1945
▁modi	-1946
▁yahi	-1947
▁Juifs	-1948
▁frère	-1949
▁meill	-1950
▁comment	-1951
▁jeyaaɗo	-1952
▁|	-1953
avez	-1954
▁Heɓ	-1955
▁hab	-1956
▁nji	-1957
▁rev	-1958
dugol	-1959
▁maan	-1960
▁répondit	-1961
Al	-1962
if	-1963
ku	-1964
ase	-1965
org	-1966
ris	-1967
▁fa	-1968
esse	-1969
▁Waɗ	-1970
▁mots	-1971
▁langue	-1972
▁version	-1973
▁Messager	-1974
ct	-1975
oci	-1976
vis	-1977
ɗum	-1978
ière	-1979
▁Son	-1980
▁Voi	-1981
▁blo	-1982
▁keɓ	-1983
▁reg	-1984
damfaa	-1985
▁bonne	-1986
▁hombo	-1987
▁waɗii	-1988
▁install	-1989
ññ	-1990
▁}.	-1991
coup	-1992
▁Auc	-1993
▁Hum	-1994
▁Won	-1995
▁fit	-1996
tient	-1997
▁souv	-1998
▁venu	-1999
abbere	-2000
aɗeele	-2001
▁ɓandu	-2002
▁kuutoro	-2003
qa	-2004
agg	-2005
▁cl	-2006
▁Naa	-2007
▁man	-2008
▁wor	-2009
aango	-2010
▁rais	-2011
▁trav	-2012
issent	-2013
▁nokku	-2014
etruusu	-2015
▁Pi	-2016
▁yaa	-2017
▁ɗii	-2018
suite	-2019
▁Tout	-2020
▁baɗte	-2021
▁aucune	-2022
▁auprès	-2023
▁fiilde	-2024
▁marque	-2025
▁modules	-2026
▁document	-2027
fte	-2028
qué	-2029
▁Web	-2030
▁exp	-2031
▁Ƴeew	-2032
▁peewal	-2033
▁Miséric	-2034
▁disponi	-2035
bra	-2036
ici	-2037
uss	-2038
▁Go	-2039
▁doo	-2040
▁his	-2041
▁Paul	-2042
▁disent	-2043
▁kuutor	-2044
▁Petruusu	-2045
▁Yo	-2046
▁gl	-2047
chez	-2048
uyee	-2049
▁And	-2050
▁Ses	-2051
▁ngu	-2052
▁syn	-2053
▁viv	-2054
▁mise	-2055
▁trois	-2056
urmeende	-2057
▁certain	-2058
enc	-2059
▁dokk	-2060
▁font	-2061
▁requ	-2062
▁elles	-2063
▁mbaaw	-2064
▁loowdi	-2065
▁message	-2066
▁témoign	-2067
▁Miséricordieux	-2068
dee	-2069
pro	-2070
▁ji	-2071
iila	-2072
user	-2073
▁Dar	-2074
▁Wall	-2075
▁quoi	-2076
▁voul	-2077
▁ngurndan	-2078
▁sacrific	-2079
Mi	-2080
oie	-2081
iers	-2082
▁Sim	-2083
▁pal	-2084
▁Ɗum	-2085
alité	-2086
esere	-2087
▁Wata	-2088
▁foti	-2089
▁yedd	-2090
▁Quand	-2091
▁autor	-2092
▁péché	-2093
▁seeɗa	-2094
▁furent	-2095
▁reconn	-2096
▁musiɓɓe	-2097
▁beaucoup	-2098
pl	-2099
eru	-2100
tice	-2101
▁lim	-2102
▁lut	-2103
taade	-2104
▁ferm	-2105
▁tamp	-2106
inooɓe	-2107
▁activ	-2108
▁nouvelle	-2109
act	-2110
uɗi	-2111
▁ga	-2112
iter	-2113
▁Mal	-2114
▁bou	-2115
▁déc	-2116
▁gor	-2117
▁new	-2118
▁voir	-2119
▁rewɓe	-2120
adresse	-2121
quement	-2122
▁yedduɓe	-2123
pé	-2124
ron	-2125
▁cur	-2126
▁vol	-2127
taama	-2128
▁mont	-2129
▁produ	-2130
▁demand	-2131
tra	-2132
aaɗi	-2133
▁Moƴƴ	-2134
iraaɓe	-2135
▁konte	-2136
▁connaî	-2137
▁désactiv	-2138
▁injustes	-2139
uri	-2140
▁Me	-2141
form	-2142
akkaa	-2143
▁Serv	-2144
▁doit	-2145
▁sapp	-2146
▁tomb	-2147
issance	-2148
torique	-2149
▁Pierre	-2150
▁œuvres	-2151
itte	-2152
▁ndu	-2153
▁ter	-2154
ternet	-2155
▁Uddit	-2156
▁naamn	-2157
▁gloire	-2158
▁yottin	-2159
fication	-2160
▁jeyaaɓe	-2161
guɗi	-2162
oris	-2163
▁Maa	-2164
▁Ouv	-2165
▁coo	-2166
▁pet	-2167
▁Nana	-2168
▁Hello	-2169
▁mains	-2170
▁malaa	-2171
▁morts	-2172
▁prote	-2173
agn	-2174
tnu	-2175
="%(	-2176
eere	-2177
inoo	-2178
▁bal	-2179
▁koy	-2180
▁éch	-2181
jours	-2182
▁Modi	-2183
▁étern	-2184
.›	-2185
='	-2186
mu	-2187
nir	-2188
oyay	-2189
▁feu	-2190
▁ron	-2191
▁uns	-2192
value	-2193
▁alla	-2194
▁rend	-2195
▁charg	-2196
▁refti	-2197
▁écrit	-2198
▁wonkii	-2199
▁fonctionn	-2200
ht	-2201
Nous	-2202
dess	-2203
ulde	-2204
▁Fir	-2205
▁eut	-2206
▁fin	-2207
▁jan	-2208
▁Hino	-2209
antage	-2210
▁droit	-2211
▁ɓernde	-2212
damfaagu	-2213
▁caɗeele	-2214
▁présent	-2215
rê	-2216
▁jaw	-2217
cript	-2218
ences	-2219
▁élec	-2220
▁ɲaam	-2221
itagol	-2222
▁appar	-2223
▁woɓɓe	-2224
▁yaltin	-2225
▁Impossible	-2226
cev	-2227
aill	-2228
▁Dés	-2229
▁muu	-2230
▁pol	-2231
pages	-2232
▁aura	-2233
▁coup	-2234
▁jonn	-2235
▁kisa	-2236
▁roya	-2237
▁ɓeyd	-2238
▁récomp	-2239
▁ressusc	-2240
▁paramètres	-2241
esp	-2242
ode	-2243
ora	-2244
▁Ph	-2245
▁faa	-2246
autre	-2247
omati	-2248
▁faam	-2249
▁nuit	-2250
ements	-2251
▁uddit	-2252
▁Yahuudiyankeeɓe	-2253
aah	-2254
ota	-2255
▁Ge	-2256
bres	-2257
onte	-2258
▁nul	-2259
▁pai	-2260
troni	-2261
▁fota	-2262
▁gila	-2263
▁land	-2264
▁main	-2265
anndal	-2266
▁Votre	-2267
▁cœurs	-2268
▁goɗɗe	-2269
▁haqii	-2270
▁ville	-2271
pendant	-2272
▁permis	-2273
▁électroni	-2274
aur	-2275
wol	-2276
▁Ou	-2277
ated	-2278
quel	-2279
▁Nos	-2280
indow	-2281
était	-2282
▁feɲɲ	-2283
▁mour	-2284
▁remp	-2285
▁annab	-2286
▁chair	-2287
▁compr	-2288
alisation	-2289
▁wonannde	-2290
inan	-2291
indi	-2292
quez	-2293
ress	-2294
ŋtin	-2295
▁mer	-2296
▁udd	-2297
▁yoo	-2298
▁Ndee	-2299
▁feƴƴ	-2300
▁yiite	-2301
▁mawnde	-2302
▁laatike	-2303
▁complément	-2304
fa	-2305
nes	-2306
▁va	-2307
▁ard	-2308
▁jem	-2309
iggol	-2310
▁Miɗo	-2311
▁Suɓo	-2312
▁heen	-2313
▁très	-2314
▁yeux	-2315
▁garde	-2316
▁soyez	-2317
▁erreur	-2318
▁répons	-2319
▁Deftere	-2320
▁commande	-2321
ene	-2322
rée	-2323
tis	-2324
uɗe	-2325
embl	-2326
▁fra	-2327
▁hol	-2328
▁mère	-2329
▁tipp	-2330
▁Cette	-2331
▁glori	-2332
▁majje	-2333
▁femmes	-2334
▁junuub	-2335
▁Ñalnde	-2336
▁royaume	-2337
><	-2338
▁Hi	-2339
ayɓe	-2340
orma	-2341
ètes	-2342
▁obs	-2343
▁Jokk	-2344
▁kuuɗe	-2345
▁ɲande	-2346
aynirde	-2347
▁chaque	-2348
▁rapport	-2349
▁automati	-2350
▁quelques	-2351
assistance	-2352
▁seulement	-2353
▁télécharg	-2354
▁serviteurs	-2355
tan	-2356
▁Ex	-2357
▁dog	-2358
▁fot	-2359
erons	-2360
▁yoga	-2361
▁Innde	-2362
▁preuv	-2363
▁ɓiɗɗo	-2364
▁Finnde	-2365
▁faalaa	-2366
▁pendant	-2367
lications	-2368
ven	-2369
▁As	-2370
gues	-2371
▁Taƴ	-2372
▁sok	-2373
▁woɗ	-2374
▁révé	-2375
▁vint	-2376
braham	-2377
▁Hollu	-2378
▁Saint	-2379
▁souff	-2380
▁ɓanng	-2381
▁prière	-2382
▁Facebook	-2383
kun	-2384
umm	-2385
uuɗi	-2386
▁Ins	-2387
▁Yer	-2388
▁ɗof	-2389
▁ment	-2390
alités	-2391
▁jogii	-2392
rection	-2393
▁Annduɗo	-2394
▁électronique	-2395
▁Ô	-2396
toy	-2397
▁ag	-2398
iron	-2399
▁Aut	-2400
▁Jér	-2401
▁jet	-2402
▁top	-2403
▁ɗem	-2404
▁ɲal	-2405
ignez	-2406
▁Maan	-2407
▁bone	-2408
▁tawa	-2409
▁arriv	-2410
▁caract	-2411
▁ai	-2412
cont	-2413
gere	-2414
link	-2415
▁dos	-2416
▁jaŋ	-2417
trans	-2418
▁moins	-2419
▁Certes	-2420
▁associ	-2421
▁ndiyan	-2422
▁wondude	-2423
▁mécréants	-2424
▁témoignage	-2425
.”	-2426
ed	-2427
Men	-2428
moi	-2429
ngo	-2430
yst	-2431
▁Nat	-2432
▁Pil	-2433
▁kur	-2434
▁nee	-2435
anngo	-2436
▁Jean	-2437
▁Teel	-2438
▁supp	-2439
▁guide	-2440
▁vient	-2441
▁Ouvrir	-2442
▁Recher	-2443
▁lorsqu	-2444
00	-2445
hi	-2446
add	-2447
cro	-2448
itu	-2449
ɗel	-2450
▁hoy	-2451
chant	-2452
image	-2453
▁tent	-2454
▁voix	-2455
usalem	-2456
▁heɓii	-2457
▁woodi	-2458
▁auront	-2459
▁giggol	-2460
▁laatin	-2461
▁peuvent	-2462
registrer	-2463
▁moƴƴaani	-2464
▁Jérusalem	-2465
ML	-2466
fu	-2467
ône	-2468
▁Tr	-2469
▁ri	-2470
inir	-2471
tent	-2472
uuje	-2473
▁nay	-2474
▁tel	-2475
ances	-2476
braah	-2477
▁Loow	-2478
▁jinn	-2479
▁tedd	-2480
jouter	-2481
▁jemma	-2482
▁Voulez	-2483
▁module	-2484
▁entendu	-2485
▁élément	-2486
braahiima	-2487
we	-2488
bil	-2489
cre	-2490
ome	-2491
▁ph	-2492
acun	-2493
ches	-2494
▁buy	-2495
▁cap	-2496
▁daɗ	-2497
▁lum	-2498
uumre	-2499
écess	-2500
▁faade	-2501
▁nanng	-2502
▁konguɗi	-2503
▁confiance	-2504
▁huutoraade	-2505
ël	-2506
goo	-2507
nit	-2508
ooh	-2509
ras	-2510
▁Mon	-2511
▁Seŋ	-2512
▁URL	-2513
▁eɓɓ	-2514
iptic	-2515
tooɓe	-2516
▁chez	-2517
▁long	-2518
▁Aawto	-2519
▁donne	-2520
▁repent	-2521
▁soient	-2522
▁waawaa	-2523
▁haqiiqa	-2524
//	-2525
Joo	-2526
eeñ	-2527
▁HT	-2528
▁Th	-2529
Isra	-2530
ours	-2531
tils	-2532
▁Sen	-2533
▁Voilà	-2534
▁ɓiɓɓe	-2535
usalaam	-2536
▁propos	-2537
▁préfér	-2538
ftinirde	-2539
▁junuubu	-2540
▁identifi	-2541
ze	-2542
ût	-2543
▁id	-2544
aram	-2545
onto	-2546
▁log	-2547
talla	-2548
▁pays	-2549
▁curve	-2550
▁divin	-2551
registr	-2552
▁Juumre	-2553
▁défaut	-2554
▁partie	-2555
▁suturo	-2556
▁elliptic	-2557
▁toujours	-2558
▁yamiroore	-2559
▁Ibraahiima	-2560
CS	-2561
gr	-2562
▁â	-2563
amp	-2564
dia	-2565
tex	-2566
toi	-2567
▁Yi	-2568
▁tab	-2569
▁vin	-2570
ments	-2571
▁Ainsi	-2572
▁bonnes	-2573
▁nécess	-2574
▁versets	-2575
▁problème	-2576
bi	-2577
▁'	-2578
iiƴ	-2579
ock	-2580
auté	-2581
▁Rés	-2582
▁cuɓ	-2583
▁dét	-2584
êtres	-2585
▁Comm	-2586
▁fann	-2587
▁tuub	-2588
▁voilà	-2589
",	-2590
ic	-2591
▁</	-2592
atak	-2593
▁loo	-2594
ateer	-2595
▁arii	-2596
▁créé	-2597
▁lien	-2598
▁ñaaw	-2599
▁Horiima	-2600
▁paroles	-2601
▁gomɗinɓe	-2602
▁nokkuure	-2603
▁enregistr	-2604
utilisateur	-2605
On	-2606
▁Om	-2607
lated	-2608
▁adii	-2609
▁ense	-2610
▁sent	-2611
▁chang	-2612
▁seedit	-2613
▁Android	-2614
translated	-2615
aru	-2616
his	-2617
yee	-2618
▁Jo	-2619
iɗɓe	-2620
▁gar	-2621
▁gas	-2622
ungol	-2623
▁Jour	-2624
▁mens	-2625
tement	-2626
▁Activ	-2627
▁balɗe	-2628
▁sahaa	-2629
▁tradu	-2630
▁confir	-2631
issement	-2632
▁Baabaajo	-2633
▁Supprimer	-2634
▁Yerusalaam	-2635
ber	-2636
▁or	-2637
▁Nom	-2638
▁See	-2639
▁Ngam	-2640
▁déli	-2641
▁ngel	-2642
indows	-2643
▁avert	-2644
▁venir	-2645
urrection	-2646
▁Modifier	-2647
uun	-2648
▁Av	-2649
heur	-2650
▁yen	-2651
aange	-2652
phone	-2653
ondiri	-2654
▁Yamir	-2655
▁wondi	-2656
▁chacun	-2657
▁envers	-2658
▁péchés	-2659
▁andinii	-2660
tallation	-2661
://	-2662
ɓdi	-2663
▁bl	-2664
anna	-2665
tudi	-2666
èmes	-2667
▁Sal	-2668
▁baw	-2669
▁end	-2670
title	-2671
▁pass	-2672
▁woɗɗ	-2673
▁nanii	-2674
▁wonɓe	-2675
▁Utilis	-2676
▁teelte	-2677
▁serveur	-2678
▁contribu	-2679
lit	-2680
nis	-2681
ɓal	-2682
isiy	-2683
onté	-2684
éder	-2685
îmes	-2686
▁Cor	-2687
▁Nel	-2688
▁ɓad	-2689
ayant	-2690
▁neɗɗ	-2691
▁Winnd	-2692
▁cours	-2693
▁hande	-2694
▁adresse	-2695
▁ñiiɓirde	-2696
tat	-2697
kies	-2698
▁Acc	-2699
▁haɗ	-2700
▁prê	-2701
antes	-2702
chron	-2703
ticle	-2704
▁ceci	-2705
▁goɗɗ	-2706
▁Notre	-2707
▁golla	-2708
▁mawɗo	-2709
▁Nulaaɓe	-2710
▁moƴƴude	-2711
▁pouvoir	-2712
▁appareil	-2713
▁meilleur	-2714
▁yurmeende	-2715
▁sélectionn	-2716
NS	-2717
rii	-2718
▁Ha	-2719
▁Pr	-2720
immi	-2721
ines	-2722
▁ara	-2723
▁hun	-2724
▁soo	-2725
emble	-2726
▁Hiɓe	-2727
▁deme	-2728
▁laak	-2729
▁sang	-2730
▁yaaw	-2731
ibaaru	-2732
riture	-2733
▁Yiylo	-2734
▁donner	-2735
▁profil	-2736
document	-2737
▁wonande	-2738
▁question	-2739
▁yaynirde	-2740
▁protection	-2741
()	-2742
ud	-2743
wo	-2744
▁3	-2745
kki	-2746
uru	-2747
rude	-2748
▁Kaa	-2749
▁Rew	-2750
▁bug	-2751
▁don	-2752
▁fal	-2753
▁gra	-2754
▁gén	-2755
▁sin	-2756
avoir	-2757
cient	-2758
▁Sync	-2759
▁paix	-2760
▁fedde	-2761
▁recev	-2762
oohoojo	-2763
▁gomɗii	-2764
esɗitine	-2765
▁attendu	-2766
▁utiliser	-2767
▁récompense	-2768
up	-2769
▁Z	-2770
ity	-2771
ker	-2772
été	-2773
tive	-2774
▁Laa	-2775
▁hoo	-2776
▁naɓ	-2777
▁atte	-2778
▁gite	-2779
▁mode	-2780
▁ɓeyn	-2781
onneur	-2782
velopp	-2783
▁binnd	-2784
▁chois	-2785
▁menen	-2786
▁requête	-2787
Almasiihu	-2788
}}	-2789
idé	-2790
ndi	-2791
éro	-2792
aaje	-2793
umma	-2794
▁Low	-2795
▁che	-2796
▁naw	-2797
▁worɓe	-2798
chronis	-2799
▁contra	-2800
▁njoɓdi	-2801
▁ordinateur	-2802
cep	-2803
iif	-2804
inu	-2805
tég	-2806
▁Mb	-2807
▁pe	-2808
anee	-2809
tage	-2810
▁pie	-2811
▁pis	-2812
▁umm	-2813
ciens	-2814
démar	-2815
itter	-2816
itude	-2817
voyer	-2818
▁weeɓ	-2819
aliser	-2820
▁piiji	-2821
▁place	-2822
▁courri	-2823
niscient	-2824
▁commenc	-2825
▁konngol	-2826
▁personnes	-2827
3$	-2828
fti	-2829
roy	-2830
▁Im	-2831
vang	-2832
▁Tou	-2833
▁fru	-2834
▁jom	-2835
chent	-2836
orter	-2837
▁Pard	-2838
▁conc	-2839
▁diiw	-2840
▁tati	-2841
▁yuɓɓ	-2842
▁laiss	-2843
▁ligne	-2844
▁yamre	-2845
▁anndaa	-2846
▁appelé	-2847
▁valide	-2848
▁certainement	-2849
ok	-2850
mer	-2851
▁Moo	-2852
▁aim	-2853
▁doc	-2854
▁sub	-2855
aille	-2856
ouver	-2857
▁Hinn	-2858
▁beso	-2859
▁mala	-2860
▁mooɓ	-2861
▁seed	-2862
ikaaɓe	-2863
valide	-2864
▁Moƴƴo	-2865
▁doole	-2866
▁mayde	-2867
▁onsay	-2868
▁tammb	-2869
▁onglet	-2870
▁Humpito	-2871
▁justice	-2872
▁appareils	-2873
▁Yahuudiyanke	-2874
OS	-2875
▁Di	-2876
uuda	-2877
endor	-2878
▁loll	-2879
▁nour	-2880
▁perd	-2881
▁gorko	-2882
▁porte	-2883
▁sembl	-2884
▁sorte	-2885
▁ƴetti	-2886
'>	-2887
ât	-2888
irk	-2889
udi	-2890
wal	-2891
delà	-2892
ight	-2893
kkil	-2894
ndee	-2895
uɗon	-2896
▁Com	-2897
▁Jaŋ	-2898
▁Mes	-2899
▁koo	-2900
▁Ɗun	-2901
aanin	-2902
▁faan	-2903
▁haal	-2904
itaade	-2905
▁bawgal	-2906
▁demeure	-2907
▁lumière	-2908
▁ordinateer	-2909
ail	-2910
mbo	-2911
num	-2912
tay	-2913
uré	-2914
ongu	-2915
reux	-2916
▁Sam	-2917
▁Yaa	-2918
▁col	-2919
▁hor	-2920
▁yoɓ	-2921
jourd	-2922
▁empê	-2923
▁sell	-2924
▁waɗa	-2925
aangal	-2926
▁barre	-2927
▁yumma	-2928
itannde	-2929
▁musiɗɗo	-2930
▁réponse	-2931
▁tabbere	-2932
▁invalide	-2933
hui	-2934
rai	-2935
▁Sé	-2936
aris	-2937
▁dur	-2938
▁kes	-2939
▁wat	-2940
▁yil	-2941
tains	-2942
▁Jipp	-2943
▁Tuma	-2944
▁joop	-2945
▁laɓɓ	-2946
▁miij	-2947
itiiɗo	-2948
nirgal	-2949
▁Geese	-2950
▁effet	-2951
▁saint	-2952
ariisiy	-2953
essayer	-2954
vangile	-2955
▁alanaa	-2956
▁temple	-2957
▁yamiri	-2958
▁Kibaaru	-2959
▁Pourquoi	-2960
▁disaient	-2961
▁hooreeɓe	-2962
▁neɗɗanke	-2963
▁ɓeyditte	-2964
.\	-2965
ŋe	-2966
asiy	-2967
ftal	-2968
oupe	-2969
wise	-2970
▁ɗow	-2971
iilaw	-2972
onnec	-2973
▁Lors	-2974
▁mayɓe	-2975
▁serez	-2976
▁esprit	-2977
▁gaanin	-2978
▁horiima	-2979
▁waawataa	-2980
▁baabiraaɓe	-2981
▁caractères	-2982
auv	-2983
▁rè	-2984
acer	-2985
anay	-2986
nent	-2987
▁fiy	-2988
▁rap	-2989
avant	-2990
onner	-2991
▁Cela	-2992
▁arsi	-2993
▁feeɲ	-2994
▁indi	-2995
▁keew	-2996
▁pens	-2997
▁peur	-2998
▁ñaam	-2999
▁ƴiiƴ	-3000
▁aldaa	-3001
▁celle	-3002
▁demeu	-3003
▁plein	-3004
▁voici	-3005
▁ɓiɗɓe	-3006
ression	-3007
▁kongol	-3008
▁signes	-3009
▁wakkil	-3010
▁À	-3011
isé	-3012
pec	-3013
ɗɗe	-3014
▁ap	-3015
▁wu	-3016
glis	-3017
isse	-3018
rait	-3019
▁jar	-3020
ferɓe	-3021
▁Cons	-3022
▁Nokk	-3023
▁hedd	-3024
▁laqu	-3025
▁vais	-3026
▁wona	-3027
▁‘%1$	-3028
▁Konte	-3029
▁Refti	-3030
▁duuɓi	-3031
▁heure	-3032
▁manif	-3033
▁mieux	-3034
▁montag	-3035
▁laquelle	-3036
▁disponible	-3037
xy	-3038
ép	-3039
bar	-3040
irc	-3041
kin	-3042
row	-3043
▁Nj	-3044
iiɗi	-3045
rage	-3046
▁ben	-3047
▁mir	-3048
▁pér	-3049
▁sol	-3050
▁yar	-3051
aayaa	-3052
reede	-3053
tribu	-3054
ution	-3055
▁Cont	-3056
▁mant	-3057
▁ngen	-3058
▁yeru	-3059
▁ɓeya	-3060
▁Chois	-3061
▁assis	-3062
▁feere	-3063
▁lanɗo	-3064
▁wonɗo	-3065
▁ɓatak	-3066
▁ballal	-3067
▁charge	-3068
▁propre	-3069
▁Huutoro	-3070
▁juulirde	-3071
utilisation	-3072
ng	-3073
pul	-3074
▁},	-3075
ends	-3076
▁Gal	-3077
▁Lab	-3078
▁kul	-3079
▁sen	-3080
elajo	-3081
▁faut	-3082
▁fera	-3083
▁reen	-3084
▁wonu	-3085
▁Voici	-3086
▁biens	-3087
▁diina	-3088
▁geɗel	-3089
▁Autoris	-3090
▁promesse	-3091
▁puissance	-3092
registrement	-3093
oud	-3094
▁{{	-3095
part	-3096
▁bay	-3097
▁hit	-3098
▁mem	-3099
inndi	-3100
▁etee	-3101
▁hump	-3102
▁rest	-3103
▁sept	-3104
▁ɗoon	-3105
dessus	-3106
teende	-3107
▁savez	-3108
▁source	-3109
▁détourn	-3110
▁Quiconque	-3111
isa	-3112
toc	-3113
▁Fu	-3114
taan	-3115
▁bap	-3116
▁obé	-3117
▁sau	-3118
endez	-3119
quels	-3120
teeɓe	-3121
▁Daaƴ	-3122
▁aide	-3123
▁code	-3124
enorde	-3125
taller	-3126
ticles	-3127
▁hiɗen	-3128
▁pieds	-3129
▁Yaayaa	-3130
▁diront	-3131
▁enfant	-3132
▁hesere	-3133
▁hommbo	-3134
▁inconn	-3135
▁mettre	-3136
▁tawata	-3137
▁waɗude	-3138
▁Ajouter	-3139
▁enseign	-3140
▁complémentaires	-3141
éd	-3142
èle	-3143
▁at	-3144
▁na	-3145
▁pa	-3146
awol	-3147
enka	-3148
hait	-3149
oyta	-3150
utôt	-3151
▁Cré	-3152
▁plu	-3153
andis	-3154
worde	-3155
▁coll	-3156
▁décl	-3157
▁Jooni	-3158
▁andaa	-3159
▁haala	-3160
▁sappoo	-3161
▁connaît	-3162
▁trouver	-3163
▁daaluyee	-3164
▁Rechercher	-3165
Aa	-3166
aine	-3167
anal	-3168
anɗo	-3169
kule	-3170
ount	-3171
resp	-3172
▁Jal	-3173
▁lev	-3174
▁yon	-3175
▁conv	-3176
▁hiɗa	-3177
▁naat	-3178
▁trop	-3179
▁Menen	-3180
▁haani	-3181
▁mawɓe	-3182
▁multi	-3183
▁sages	-3184
▁logici	-3185
▁Activer	-3186
▁Comment	-3187
▁momtude	-3188
▁retourn	-3189
▁viendra	-3190
▁heeferɓe	-3191
ariisiyaaɓe	-3192
#1	-3193
TP	-3194
md	-3195
aff	-3196
tri	-3197
▁fl	-3198
▁sû	-3199
iilu	-3200
ième	-3201
tuɗe	-3202
▁esp	-3203
▁mil	-3204
▁wak	-3205
▁wul	-3206
▁}</	-3207
toire	-3208
▁appr	-3209
▁nang	-3210
Israël	-3211
ikaajo	-3212
vendor	-3213
▁Taƴto	-3214
▁faamu	-3215
▁palal	-3216
▁relig	-3217
tifikaa	-3218
▁Erreur	-3219
▁Suturo	-3220
▁rapide	-3221
▁Seniiɗo	-3222
▁cookies	-3223
▁teeŋtin	-3224
▁prophètes	-3225
Je	-3226
na	-3227
ose	-3228
▁Fo	-3229
▁Ka	-3230
▁ét	-3231
ices	-3232
inno	-3233
iyee	-3234
▁ign	-3235
▁jow	-3236
▁let	-3237
annoo	-3238
inter	-3239
▁juum	-3240
▁rass	-3241
ystème	-3242
▁annon	-3243
▁heɓde	-3244
▁jawle	-3245
▁révis	-3246
▁premier	-3247
▁vinrent	-3248
historique	-3249
▁connecter	-3250
▁Pardonneur	-3251
▁fonctionnalités	-3252
bes	-3253
▁Pu	-3254
aara	-3255
ayee	-3256
▁Hol	-3257
produ	-3258
teede	-3259
▁actu	-3260
▁telen	-3261
▁famille	-3262
▁winndannde	-3263
aï	-3264
ly	-3265
enf	-3266
ith	-3267
let	-3268
rig	-3269
port	-3270
uttu	-3271
▁Jah	-3272
▁Jom	-3273
▁Sar	-3274
▁kar	-3275
▁noon	-3276
▁sirk	-3277
▁ɓann	-3278
queurs	-3279
unooɓe	-3280
▁obsol	-3281
▁refus	-3282
eewtere	-3283
product	-3284
▁combat	-3285
▁jokkol	-3286
▁pharis	-3287
▁ƴiiƴan	-3288
▁Abraham	-3289
▁ganndal	-3290
▁création	-3291
él	-3292
▁ô	-3293
="{	-3294
aim	-3295
▁cr	-3296
▁ew	-3297
itee	-3298
lair	-3299
onge	-3300
onné	-3301
péci	-3302
▁Déc	-3303
▁aaw	-3304
▁met	-3305
▁ɓoo	-3306
Joomi	-3307
▁Goll	-3308
▁koko	-3309
▁sait	-3310
▁sunn	-3311
▁vain	-3312
ennent	-3313
oraaɗe	-3314
▁frapp	-3315
▁nguur	-3316
▁spéci	-3317
▁trait	-3318
activer	-3319
unngere	-3320
▁consul	-3321
▁kurkaa	-3322
▁parler	-3323
▁rewind	-3324
▁plupart	-3325
▁communauté	-3326
installation	-3327
’.	-3328
uns	-3329
▁op	-3330
eaux	-3331
▁Feu	-3332
▁cag	-3333
▁fod	-3334
▁loc	-3335
▁yee	-3336
▁évi	-3337
▁ɓor	-3338
ature	-3339
irnoo	-3340
▁Comp	-3341
▁diff	-3342
▁fort	-3343
▁nani	-3344
▁préc	-3345
▁tikk	-3346
▁anndi	-3347
▁jeeɗi	-3348
▁meɗen	-3349
▁publi	-3350
▁Aucune	-3351
▁partag	-3352
▁tawnoo	-3353
▁voyant	-3354
▁Darngal	-3355
▁ensuite	-3356
▁laakara	-3357
▁ɗemngal	-3358
▁première	-3359
▁Sélectionn	-3360
ba	-3361
yl	-3362
iɗo	-3363
wru	-3364
ƴƴi	-3365
▁Aaf	-3366
▁Alj	-3367
▁Des	-3368
▁Ina	-3369
▁fel	-3370
▁lor	-3371
▁wii	-3372
pport	-3373
▁poss	-3374
▁pros	-3375
▁vois	-3376
▁Ñeeñ	-3377
entils	-3378
tainer	-3379
ussion	-3380
▁Annab	-3381
▁annonc	-3382
▁plutôt	-3383
▁Ƴeewto	-3384
▁langues	-3385
▁wonanii	-3386
▁maandeeji	-3387
riv	-3388
urs	-3389
ɗan	-3390
▁Ad	-3391
▁Ti	-3392
imit	-3393
▁Ena	-3394
▁Est	-3395
▁Goo	-3396
▁Hay	-3397
▁roi	-3398
▁saɗ	-3399
aison	-3400
kiije	-3401
omain	-3402
▁Sage	-3403
▁fenn	-3404
▁invo	-3405
▁jaɓɓ	-3406
▁nday	-3407
▁nguu	-3408
▁yaaf	-3409
bilité	-3410
ientôt	-3411
liquez	-3412
▁liste	-3413
▁noone	-3414
▁pieux	-3415
▁jippin	-3416
▁quelle	-3417
▁valeur	-3418
▁laatino	-3419
▁souhait	-3420
▁supprim	-3421
▁développ	-3422
▁tooñooɓe	-3423
▁Messagers	-3424
▁principaux	-3425
BrandShortName	-3426
▁sacrificateurs	-3427
ja	-3428
eci	-3429
fie	-3430
gor	-3431
érer	-3432
▁Blo	-3433
▁enn	-3434
oowal	-3435
veill	-3436
▁acqu	-3437
▁hors	-3438
▁jaar	-3439
▁joie	-3440
▁repr	-3441
▁yiɗde	-3442
respond	-3443
▁besoin	-3444
▁hurmin	-3445
▁landii	-3446
▁rendre	-3447
▁Wallitorde	-3448
▁pharisiens	-3449
▁préférences	-3450
ili	-3451
édi	-3452
▁br	-3453
▁eu	-3454
aame	-3455
tata	-3456
urer	-3457
uunu	-3458
▁Tes	-3459
▁ait	-3460
▁cal	-3461
▁fav	-3462
▁yeɗ	-3463
itike	-3464
taaka	-3465
taake	-3466
▁Conf	-3467
▁Daaw	-3468
▁Tous	-3469
▁alli	-3470
▁duum	-3471
▁keer	-3472
▁pann	-3473
▁Comme	-3474
▁aslol	-3475
▁janng	-3476
▁ndaar	-3477
▁ɓuttu	-3478
▁belajo	-3479
▁juumre	-3480
▁lequel	-3481
▁manger	-3482
▁naamnal	-3483
▁supprimer	-3484
ato	-3485
tru	-3486
▁ku	-3487
Full	-3488
aabi	-3489
aatu	-3490
irɗi	-3491
▁Dav	-3492
▁Kam	-3493
▁Rut	-3494
▁cou	-3495
▁jou	-3496
▁rem	-3497
▁wur	-3498
appel	-3499
taare	-3500
ôtres	-3501
▁Wota	-3502
▁fool	-3503
▁lanc	-3504
▁tête	-3505
titude	-3506
▁Aucun	-3507
▁honto	-3508
▁naatn	-3509
▁proxy	-3510
▁tromp	-3511
tension	-3512
▁Naatnu	-3513
▁disait	-3514
▁Gentils	-3515
▁descend	-3516
▁demeurer	-3517
▁ɲalaande	-3518
▁fiilannde	-3519
▁heftinirde	-3520
▁reconnaiss	-3521
EC	-3522
IN	-3523
RI	-3524
gl	-3525
▁z	-3526
Min	-3527
acé	-3528
aka	-3529
bas	-3530
ejo	-3531
iro	-3532
awna	-3533
ayka	-3534
iire	-3535
rons	-3536
ɗuɓe	-3537
▁Jac	-3538
▁cok	-3539
▁dém	-3540
▁jib	-3541
▁kin	-3542
▁kod	-3543
▁mit	-3544
▁moy	-3545
▁pin	-3546
Aaden	-3547
▁Hara	-3548
▁Quel	-3549
▁heɓi	-3550
▁pati	-3551
▁pres	-3552
itique	-3553
▁faale	-3554
▁mises	-3555
▁épous	-3556
▁Ɓawto	-3557
▁diiwal	-3558
▁milieu	-3559
▁poomaa	-3560
▁deftere	-3561
▁jeeɗiɗi	-3562
▁suivant	-3563
▁wootere	-3564
▁yenanaa	-3565
▁kuutorɗe	-3566
application	-3567
▁Omniscient	-3568
Or	-3569
nu	-3570
sh	-3571
aho	-3572
uba	-3573
ɲun	-3574
▁Fi	-3575
aide	-3576
duɓe	-3577
eeli	-3578
gent	-3579
itde	-3580
itoo	-3581
itôt	-3582
▁Non	-3583
▁boo	-3584
▁cri	-3585
▁fac	-3586
▁lou	-3587
▁rac	-3588
▁sos	-3589
aandi	-3590
crire	-3591
intaa	-3592
irgel	-3593
▁Fiil	-3594
▁Nouv	-3595
▁sabb	-3596
▁tant	-3597
▁vidé	-3598
inndel	-3599
liquer	-3600
locage	-3601
▁Proph	-3602
▁conci	-3603
▁golli	-3604
▁julde	-3605
▁mayri	-3606
▁rendu	-3607
▁ɓurɗo	-3608
ception	-3609
▁mourir	-3610
▁retour	-3611
▁sortir	-3612
cription	-3613
paravant	-3614
Évangile	-3615
▁charité	-3616
▁continu	-3617
▁fenêtre	-3618
▁preuves	-3619
▁sentier	-3620
▁service	-3621
▁système	-3622
▁kaɓirgol	-3623
▁religion	-3624
dés	-3625
per	-3626
trl	-3627
tés	-3628
ève	-3629
▁ki	-3630
Link	-3631
ggal	-3632
iɗon	-3633
ondi	-3634
quée	-3635
tiri	-3636
▁Bar	-3637
▁Ben	-3638
▁Der	-3639
▁dès	-3640
▁kas	-3641
▁pub	-3642
▁ram	-3643
▁tum	-3644
▁yot	-3645
imeel	-3646
itere	-3647
▁Elle	-3648
▁Peer	-3649
▁Véri	-3650
▁Wayl	-3651
▁tawo	-3652
▁Après	-3653
▁David	-3654
▁Lowre	-3655
▁dites	-3656
▁kaɲun	-3657
▁table	-3658
ussitôt	-3659
ération	-3660
▁tandis	-3661
▁prophète	-3662
▁annabaaɓe	-3663
▁cependant	-3664
▁seedamfaagu	-3665
/>	-3666
In	-3667
so	-3668
ath	-3669
fid	-3670
jan	-3671
tif	-3672
ède	-3673
▁we	-3674
sync	-3675
tuɗo	-3676
▁Tra	-3677
▁ans	-3678
▁vit	-3679
▁vou	-3680
ermin	-3681
▁Afin	-3682
▁Hoto	-3683
▁fagg	-3684
▁feeñ	-3685
▁gaay	-3686
▁haut	-3687
▁suff	-3688
▁taho	-3689
▁ŋakk	-3690
cience	-3691
▁Malaa	-3692
▁Mariy	-3693
▁Yiite	-3694
▁douze	-3695
▁ennem	-3696
▁ignor	-3697
▁jokki	-3698
▁laana	-3699
▁feɲɲin	-3700
▁raison	-3701
▁rappel	-3702
▁Ɓeydit	-3703
▁crainte	-3704
▁Daawuuda	-3705
▁craignez	-3706
▁mensonge	-3707
▁kesɗitine	-3708
▁synchronis	-3709
▁certificats	-3710
62	-3711
9.	-3712
>{	-3713
Le	-3714
pu	-3715
iff	-3716
rou	-3717
çon	-3718
▁({	-3719
▁ah	-3720
anti	-3721
erci	-3722
fois	-3723
ndam	-3724
outa	-3725
trer	-3726
ttps	-3727
ural	-3728
▁bén	-3729
▁gon	-3730
▁ɗam	-3731
anndi	-3732
garde	-3733
initi	-3734
ortez	-3735
ortoo	-3736
teeri	-3737
tenir	-3738
▁Naam	-3739
▁scri	-3740
▁wond	-3741
irconc	-3742
ouvrir	-3743
▁Marie	-3744
▁Yaaqu	-3745
▁anges	-3746
▁condu	-3747
▁kulol	-3748
▁mirac	-3749
élément	-3750
▁bientôt	-3751
▁njiilaw	-3752
▁certains	-3753
▁divinité	-3754
▁révision	-3755
▁connaissance	-3756
▁automatiquement	-3757
ty	-3758
uul	-3759
yii	-3760
éli	-3761
éré	-3762
▁#2	-3763
▁10	-3764
▁Cu	-3765
atre	-3766
riez	-3767
tiez	-3768
uɗaa	-3769
▁Ceŋ	-3770
▁Few	-3771
▁Jey	-3772
▁Tar	-3773
▁dii	-3774
▁ken	-3775
▁liv	-3776
▁oya	-3777
▁wee	-3778
Enfer	-3779
quent	-3780
tirde	-3781
▁iwri	-3782
▁laam	-3783
▁mbel	-3784
▁sois	-3785
▁suuf	-3786
▁yiyl	-3787
▁Neldu	-3788
▁misal	-3789
▁pages	-3790
▁quant	-3791
▁contex	-3792
▁différ	-3793
▁moment	-3794
▁wonnoo	-3795
▁manière	-3796
▁parfait	-3797
▁volonté	-3798
▁Yaaquuba	-3799
▁plantage	-3800
▁questions	-3801
▁serviteur	-3802
▁Téléchargez	-3803
gn	-3804
ys	-3805
ça	-3806
NSI	-3807
ede	-3808
lie	-3809
oyi	-3810
▁20	-3811
time	-3812
ynoo	-3813
▁Fil	-3814
▁but	-3815
▁tex	-3816
▁wir	-3817
heure	-3818
rière	-3819
èbres	-3820
▁ANSI	-3821
▁Pers	-3822
▁aveu	-3823
▁gayn	-3824
▁geɗe	-3825
annama	-3826
etaake	-3827
oraade	-3828
rement	-3829
▁Yuusu	-3830
▁dannd	-3831
▁laato	-3832
▁neene	-3833
▁pères	-3834
▁tawde	-3835
appanɗe	-3836
▁Teelte	-3837
▁caggal	-3838
▁groupe	-3839
▁jertin	-3840
▁regard	-3841
▁savent	-3842
▁trouve	-3843
FullName	-3844
▁actions	-3845
▁compagn	-3846
▁jokkude	-3847
▁prostern	-3848
▁nouvelles	-3849
▁chargement	-3850
An	-3851
Re	-3852
wi	-3853
ava	-3854
eul	-3855
kis	-3856
ectu	-3857
fiez	-3858
itol	-3859
lock	-3860
undi	-3861
érit	-3862
▁PIN	-3863
▁Tag	-3864
▁dim	-3865
▁nge	-3866
▁off	-3867
anger	-3868
avait	-3869
istes	-3870
▁Onon	-3871
▁Topp	-3872
▁aray	-3873
▁base	-3874
▁fewn	-3875
Script	-3876
itiiɓe	-3877
▁Binnd	-3878
▁Coran	-3879
▁Tabbe	-3880
▁aafde	-3881
▁connu	-3882
▁livre	-3883
▁waɗde	-3884
▁Ɓiɗɗo	-3885
▁Hurmin	-3886
▁accord	-3887
▁alkule	-3888
▁laatii	-3889
▁windii	-3890
▁Service	-3891
▁waɗugol	-3892
▁afficher	-3893
▁obsolète	-3894
▁Application	-3895
▁Télécharger	-3896
▁Résurrection	-3897
fe	-3898
inc	-3899
wel	-3900
9.62	-3901
Time	-3902
andi	-3903
iles	-3904
omin	-3905
tigi	-3906
tini	-3907
▁emb	-3908
▁tow	-3909
▁tén	-3910
▁way	-3911
accès	-3912
alise	-3913
kaaji	-3914
limit	-3915
moire	-3916
oseph	-3917
ytaan	-3918
étant	-3919
▁Bayl	-3920
▁Java	-3921
▁Sign	-3922
▁déta	-3923
▁type	-3924
dition	-3925
ention	-3926
▁biree	-3927
▁forum	-3928
▁mofte	-3929
▁réjou	-3930
support	-3931
▁Danndu	-3932
▁dental	-3933
▁droite	-3934
▁ñalnde	-3935
▁Windows	-3936
▁autoris	-3937
▁gomɗini	-3938
▁kisiyee	-3939
▁sagesse	-3940
▁cappanɗe	-3941
▁nguurndam	-3942
▁JavaScript	-3943
dio	-3944
ler	-3945
ngu	-3946
obo	-3947
oro	-3948
ost	-3949
rib	-3950
ttp	-3951
▁Ye	-3952
▁aa	-3953
andé	-3954
inee	-3955
oyte	-3956
écut	-3957
▁Tel	-3958
▁bas	-3959
▁far	-3960
▁mah	-3961
▁siè	-3962
erain	-3963
iront	-3964
▁Sais	-3965
▁sujj	-3966
▁veux	-3967
▁voie	-3968
▁yejj	-3969
▁déliv	-3970
▁inatt	-3971
▁juste	-3972
▁noddi	-3973
▁oubli	-3974
▁wonan	-3975
▁Joseph	-3976
▁Maître	-3977
▁bouche	-3978
▁doggol	-3979
▁entrer	-3980
▁mbaawi	-3981
▁permet	-3982
▁protég	-3983
anngogol	-3984
▁Ensuite	-3985
▁Envoyer	-3986
▁ɗuuɗude	-3987
▁Utiliser	-3988
▁fenaande	-3989
▁jaaraama	-3990
▁sartifikaa	-3991
▁Enregistrer	-3992
;.	-3993
Mo	-3994
nb	-3995
ss	-3996
gii	-3997
Ctrl	-3998
crit	-3999
llig	-4000
ɗude	-4001
▁âme	-4002
formé	-4003
glise	-4004
guure	-4005
quant	-4006
▁cakk	-4007
▁dira	-4008
▁form	-4009
▁télé	-4010
itooɓe	-4011
▁Merci	-4012
▁devez	-4013
▁défin	-4014
▁kisan	-4015
▁natal	-4016
▁reste	-4017
ankeejo	-4018
▁Iimeel	-4019
▁apport	-4020
▁jooɗii	-4021
▁naatnu	-4022
▁soumis	-4023
▁anciens	-4024
▁attribu	-4025
▁aujourd	-4026
▁jannooɓe	-4027
▁maantore	-4028
▁ténèbres	-4029
▁Seedamfaagu	-4030
▁éternellement	-4031
cu	-4032
rô	-4033
▁—	-4034
></	-4035
env	-4036
▁ba	-4037
clav	-4038
▁jiy	-4039
▁lab	-4040
▁num	-4041
▁pii	-4042
▁sif	-4043
▁tot	-4044
▁éle	-4045
indir	-4046
ordre	-4047
teeɗo	-4048
▁hono	-4049
▁huli	-4050
▁ndii	-4051
▁sour	-4052
▁yank	-4053
▁ɓang	-4054
ightly	-4055
itiiɗe	-4056
▁Derni	-4057
▁Simon	-4058
▁banng	-4059
▁digne	-4060
▁entra	-4061
▁jeyaa	-4062
▁mange	-4063
▁pelle	-4064
▁pinle	-4065
▁Kuutor	-4066
▁ouvert	-4067
▁public	-4068
▁réseau	-4069
▁accompl	-4070
▁mémoire	-4071
▁gomɗinɗo	-4072
▁immintin	-4073
▁sarworde	-4074
▁appartient	-4075
▁discussion	-4076
▁junuubaaji	-4077
he	-4078
pa	-4079
pe	-4080
%2$	-4081
ECG	-4082
KCS	-4083
atu	-4084
din	-4085
dis	-4086
uez	-4087
woo	-4088
▁Du	-4089
alli	-4090
amme	-4091
eraa	-4092
ffic	-4093
tind	-4094
tête	-4095
▁Taw	-4096
▁bat	-4097
▁clé	-4098
▁dee	-4099
▁dew	-4100
▁fid	-4101
▁jeû	-4102
▁nun	-4103
▁Éch	-4104
araon	-4105
denti	-4106
opier	-4107
▁Fool	-4108
▁SECG	-4109
▁ball	-4110
▁fell	-4111
▁fill	-4112
▁pous	-4113
mation	-4114
▁Galil	-4115
▁geɓal	-4116
▁moƴƴo	-4117
▁ouver	-4118
▁yiyde	-4119
inndere	-4120
itiinde	-4121
▁Common	-4122
▁véridi	-4123
▁ɗaɓɓit	-4124
anndanoo	-4125
▁Pharaon	-4126
▁cinndel	-4127
▁ɓeydude	-4128
▁Puissant	-4129
▁articles	-4130
▁aussitôt	-4131
▁avertiss	-4132
▁vérifier	-4133
▁yeewtere	-4134
▁problèmes	-4135
▁ɓeynguure	-4136
▁ressuscité	-4137
ash	-4138
gag	-4139
ore	-4140
ots	-4141
ura	-4142
cess	-4143
erez	-4144
igné	-4145
iiya	-4146
mere	-4147
qués	-4148
▁Toi	-4149
▁cin	-4150
▁dey	-4151
▁sim	-4152
aasiq	-4153
areil	-4154
ivers	-4155
tataa	-4156
tirɗe	-4157
urmit	-4158
▁Ceci	-4159
▁Keɓe	-4160
▁Seŋo	-4161
▁enen	-4162
▁masi	-4163
▁ngin	-4164
▁près	-4165
▁Ɗaɓɓ	-4166
endent	-4167
oivent	-4168
onglet	-4169
oureux	-4170
ytaane	-4171
▁Meɗen	-4172
▁Voice	-4173
▁Waylu	-4174
aabaaɓe	-4175
android	-4176
ondirii	-4177
▁Anndee	-4178
▁colère	-4179
▁correc	-4180
▁déclar	-4181
▁entend	-4182
▁hewtii	-4183
▁maître	-4184
▁ndaygu	-4185
▁pardon	-4186
▁ƴeewto	-4187
attribut	-4188
esɗitinal	-4189
▁Internet	-4190
▁suufaaɓe	-4191
▁Wanngorde	-4192
▁principal	-4193
▁souverain	-4194
ies	-4195
may	-4196
ɗal	-4197
inay	-4198
mdOr	-4199
oper	-4200
orer	-4201
orgo	-4202
rome	-4203
soft	-4204
èles	-4205
▁Jud	-4206
▁Pal	-4207
▁Woo	-4208
▁dak	-4209
▁dol	-4210
▁red	-4211
▁vue	-4212
▁yan	-4213
aandu	-4214
ative	-4215
esses	-4216
écran	-4217
▁Timm	-4218
▁agré	-4219
▁bayl	-4220
▁laat	-4221
▁menu	-4222
▁pain	-4223
▁sièc	-4224
Église	-4225
▁Hafor	-4226
▁appro	-4227
▁koyɗe	-4228
article	-4229
veloper	-4230
▁action	-4231
▁dokkal	-4232
▁faasiq	-4233
▁grâces	-4234
mdOrCtrl	-4235
▁Jaliilu	-4236
▁pistage	-4237
▁redémar	-4238
▁rencont	-4239
▁scribes	-4240
▁bienfait	-4241
▁courriel	-4242
▁éléments	-4243
▁Autoriser	-4244
▁auparavant	-4245
▁nécessaire	-4246
▁utilisateur	-4247
SS	-4248
▁”	-4249
ago	-4250
bir	-4251
gne	-4252
rés	-4253
rêt	-4254
▁Wa	-4255
sier	-4256
siez	-4257
▁Jam	-4258
▁ens	-4259
▁fai	-4260
▁gun	-4261
▁haɓ	-4262
▁iOS	-4263
▁wer	-4264
ocket	-4265
rugol	-4266
▁HTTP	-4267
▁Isra	-4268
▁Loll	-4269
▁assu	-4270
▁batt	-4271
▁cent	-4272
▁doul	-4273
▁mois	-4274
▁neld	-4275
▁pauv	-4276
▁sauf	-4277
▁toɗɗ	-4278
▁écou	-4279
▁ɗuum	-4280
ctions	-4281
▁habit	-4282
▁heewi	-4283
▁muusu	-4284
▁rempl	-4285
▁salut	-4286
▁texte	-4287
▁vidéo	-4288
▁yalti	-4289
crosoft	-4290
uubuyee	-4291
▁avions	-4292
▁baptis	-4293
▁prépar	-4294
▁quatre	-4295
▁voulez	-4296
▁Fooluɗo	-4297
▁rétribu	-4298
▁Mariyama	-4299
▁dernière	-4300
dentifiant	-4301
▁Hinnotooɗo	-4302
▁permission	-4303
OR	-4304
nt	-4305
ike	-4306
iré	-4307
ndu	-4308
ret	-4309
▁Es	-4310
adis	-4311
awnd	-4312
ecce	-4313
uurn	-4314
▁%3$	-4315
▁Duu	-4316
▁bew	-4317
▁dam	-4318
▁sat	-4319
▁épr	-4320
▁ŋal	-4321
erver	-4322
oleil	-4323
quest	-4324
▁HTML	-4325
▁PKCS	-4326
▁hers	-4327
▁himm	-4328
▁prit	-4329
▁watt	-4330
▁cache	-4331
▁petit	-4332
▁proch	-4333
▁yuɓɓo	-4334
▁Jaaɓɗe	-4335
▁condam	-4336
▁config	-4337
▁croyez	-4338
▁recomm	-4339
▁soleil	-4340
▁termin	-4341
irconcis	-4342
▁Tabbere	-4343
▁mawnude	-4344
▁muusuɗe	-4345
▁possède	-4346
▁seŋaade	-4347
▁sécuris	-4348
▁wallude	-4349
▁lesquels	-4350
▁présente	-4351
▁ruttorde	-4352
▁installer	-4353
▁correspond	-4354
▁douloureux	-4355
▁tuubuubuyee	-4356
▁applications	-4357
OM	-4358
lt	-4359
év	-4360
▁/	-4361
▁5	-4362
;#1	-4363
Att	-4364
cod	-4365
oko	-4366
ppi	-4367
tac	-4368
uln	-4369
anam	-4370
buli	-4371
enne	-4372
iray	-4373
▁can	-4374
▁mur	-4375
▁nje	-4376
▁Ɗee	-4377
arnab	-4378
aytol	-4379
indre	-4380
taali	-4381
tinde	-4382
venue	-4383
▁aran	-4384
▁hawa	-4385
▁iwde	-4386
▁meur	-4387
▁natt	-4388
▁ndar	-4389
▁peer	-4390
▁woow	-4391
domain	-4392
érance	-4393
▁Navig	-4394
▁chiff	-4395
▁daɗnd	-4396
▁donna	-4397
▁possé	-4398
▁woond	-4399
akkaatu	-4400
aramoko	-4401
▁Barnab	-4402
▁arrivé	-4403
▁boowal	-4404
▁poomay	-4405
▁saints	-4406
Koohoojo	-4407
▁Lorsque	-4408
▁Ñeeñuɗo	-4409
▁fannuuji	-4410
▁mauvaise	-4411
▁messages	-4412
▁woodanii	-4413
▁Ɓeyditte	-4414
▁Cependant	-4415
▁Jahannama	-4416
▁semblable	-4417
▁Fariisiyaaɓe	-4418
ît	-4419
ach	-4420
eff	-4421
esa	-4422
iya	-4423
jal	-4424
raa	-4425
tér	-4426
chés	-4427
esta	-4428
inɗo	-4429
leur	-4430
▁Att	-4431
▁Bay	-4432
▁Kaɓ	-4433
▁Pré	-4434
▁Top	-4435
▁bee	-4436
▁eto	-4437
▁fef	-4438
▁pun	-4439
appro	-4440
laamu	-4441
▁anim	-4442
▁exem	-4443
▁muññ	-4444
▁viol	-4445
▁yett	-4446
▁Anges	-4447
▁Goong	-4448
▁fasse	-4449
▁feewi	-4450
▁force	-4451
▁fourn	-4452
▁jamir	-4453
▁lorra	-4454
▁mécru	-4455
▁naati	-4456
▁sépul	-4457
▁tourn	-4458
▁appris	-4459
▁outils	-4460
▁respec	-4461
▁synago	-4462
▁ɓanngu	-4463
lockwise	-4464
▁apôtres	-4465
▁tampere	-4466
▁Enternet	-4467
▁Maantore	-4468
▁associés	-4469
▁jugement	-4470
▁weltaare	-4471
▁ɓeydital	-4472
▁commandement	-4473
ɗu	-4474
dol	-4475
ilo	-4476
oué	-4477
aanu	-4478
aute	-4479
cell	-4480
enti	-4481
gles	-4482
type	-4483
uler	-4484
▁Emp	-4485
▁Haa	-4486
▁Moi	-4487
▁Sur	-4488
▁URI	-4489
▁anc	-4490
▁hes	-4491
▁pot	-4492
▁ɓaŋ	-4493
▁ador	-4494
▁baaw	-4495
▁mbil	-4496
▁puri	-4497
▁succ	-4498
▁tint	-4499
▁tort	-4500
▁ɓenn	-4501
ardins	-4502
▁champ	-4503
▁cuuɗi	-4504
▁dennd	-4505
▁fîmes	-4506
▁résul	-4507
▁venus	-4508
▁voulu	-4509
▁ɓurɓe	-4510
buliisa	-4511
▁Diable	-4512
▁Fiilde	-4513
▁Loowdi	-4514
▁jannde	-4515
▁partir	-4516
▁propri	-4517
▁serait	-4518
avantage	-4519
▁raisonn	-4520
▁Prophète	-4521
▁adinooɓe	-4522
▁fichiers	-4523
▁fuɗɗoode	-4524
▁produite	-4525
▁contraire	-4526
▁traqueurs	-4527
!›	-4528
No	-4529
com	-4530
ete	-4531
oth	-4532
îte	-4533
illé	-4534
ondu	-4535
uuta	-4536
▁Pas	-4537
▁dag	-4538
▁fût	-4539
▁heb	-4540
▁hir	-4541
▁lec	-4542
▁pit	-4543
▁sac	-4544
▁yii	-4545
▁firo	-4546
▁muuy	-4547
▁vête	-4548
raient	-4549
tirgal	-4550
▁Natto	-4551
▁laama	-4552
▁masiŋ	-4553
▁règle	-4554
uration	-4555
▁Hesere	-4556
▁aurait	-4557
▁destin	-4558
▁goɗɗun	-4559
▁hannde	-4560
▁ontigi	-4561
▁preuve	-4562
▁transg	-4563
▁établi	-4564
▁tooñuɓe	-4565
▁Hesɗitin	-4566
▁Ibuliisa	-4567
▁anndaaka	-4568
▁CmdOrCtrl	-4569
▁davantage	-4570
▁automatique	-4571
▁disponibles	-4572
BrandFullName	-4573
▁Applications	-4574
▁téléchargement	-4575
Se	-4576
ami	-4577
div	-4578
uta	-4579
Ɗum	-4580
▁Ay	-4581
▁To	-4582
▁Wi	-4583
anno	-4584
code	-4585
eeɗe	-4586
este	-4587
orig	-4588
stru	-4589
▁Eff	-4590
▁Muu	-4591
▁Sos	-4592
▁gul	-4593
▁inf	-4594
▁jur	-4595
▁luu	-4596
▁sty	-4597
▁yet	-4598
dduɗo	-4599
morde	-4600
taako	-4601
▁Enee	-4602
▁Jaab	-4603
▁Sakk	-4604
▁crim	-4605
▁dann	-4606
▁giɗo	-4607
▁haqq	-4608
▁hucc	-4609
▁jaaj	-4610
▁kese	-4611
▁neem	-4612
▁njiɗ	-4613
▁pair	-4614
▁tijj	-4615
cation	-4616
inoowo	-4617
▁Quant	-4618
▁aider	-4619
▁essay	-4620
▁fayɓe	-4621
▁julle	-4622
▁takko	-4623
▁ɗuuɗi	-4624
▁esclav	-4625
▁fefind	-4626
▁mesure	-4627
▁prison	-4628
▁rencon	-4629
▁révélé	-4630
▁signal	-4631
▁éviden	-4632
▁dossier	-4633
▁envoyer	-4634
▁topirɗe	-4635
▁gomɗinaa	-4636
▁hooreejo	-4637
▁Haforoowo	-4638
▁teddungal	-4639
▁application	-4640
ID	-4641
">{	-4642
Key	-4643
nor	-4644
ɗee	-4645
▁Wo	-4646
▁ro	-4647
anto	-4648
iijo	-4649
inta	-4650
ises	-4651
orti	-4652
toto	-4653
uusa	-4654
▁bre	-4655
▁niv	-4656
▁uni	-4657
▁équ	-4658
aagal	-4659
▁Ngon	-4660
▁gall	-4661
▁habb	-4662
▁ngii	-4663
▁tard	-4664
▁toow	-4665
▁vrai	-4666
▁yaha	-4667
▁yani	-4668
iraali	-4669
▁angal	-4670
▁boire	-4671
▁croit	-4672
▁kabar	-4673
▁mille	-4674
▁teeme	-4675
▁écran	-4676
aametee	-4677
▁craign	-4678
▁immini	-4679
▁inform	-4680
▁lettre	-4681
▁passer	-4682
facebook	-4683
▁Galilée	-4684
▁accorde	-4685
▁fodoore	-4686
▁ɗuuɗuɓe	-4687
▁wonkiiji	-4688
▁Container	-4689
▁kabaruuji	-4690
▁logiciels	-4691
▁Désactiver	-4692
▁nourriture	-4693
▁traduction	-4694
▁contributeurs	-4695
IS	-4696
▁[	-4697
Yah	-4698
acy	-4699
jjo	-4700
nal	-4701
oor	-4702
▁im	-4703
▁sc	-4704
anté	-4705
erie	-4706
inux	-4707
kkor	-4708
nude	-4709
romp	-4710
▁Jaɓ	-4711
▁ayn	-4712
▁dél	-4713
▁jol	-4714
▁lic	-4715
▁mod	-4716
améra	-4717
anike	-4718
appar	-4719
gueil	-4720
lient	-4721
orité	-4722
tiima	-4723
tirer	-4724
▁acci	-4725
▁déci	-4726
▁gasa	-4727
▁hokk	-4728
▁huuw	-4729
▁nduu	-4730
▁sédu	-4731
▁tour	-4732
▁égal	-4733
▁égar	-4734
ettent	-4735
▁Yimɓe	-4736
▁ceŋol	-4737
▁compl	-4738
▁façon	-4739
▁laabi	-4740
▁lewru	-4741
▁venue	-4742
▁Consul	-4743
▁bloqué	-4744
▁sabbat	-4745
▁saisir	-4746
▁Pilaatu	-4747
▁condamn	-4748
▁feewuɓe	-4749
▁henorde	-4750
▁majjere	-4751
▁malheur	-4752
▁refusée	-4753
▁regarde	-4754
▁tikkere	-4755
▁témoins	-4756
formation	-4757
▁Certific	-4758
▁ancêtres	-4759
▁huutorɓe	-4760
▁installé	-4761
▁Microsoft	-4762
▁Saisissez	-4763
▁banngogol	-4764
▁finndeeji	-4765
▁montagnes	-4766
▁reweteeɗo	-4767
▁confidenti	-4768
▁véridiques	-4769
▁yottinooɓe	-4770
▁identifiants	-4771
ME	-4772
CSP	-4773
aum	-4774
uli	-4775
uuh	-4776
ɗol	-4777
Hara	-4778
host	-4779
itoy	-4780
lles	-4781
▁Kuu	-4782
▁iwi	-4783
▁tas	-4784
orker	-4785
▁Ngol	-4786
▁OCSP	-4787
▁aade	-4788
▁aroy	-4789
▁faux	-4790
▁fond	-4791
▁loin	-4792
▁nafa	-4793
▁yees	-4794
▁ɓadi	-4795
format	-4796
rowser	-4797
tortoo	-4798
yottin	-4799
▁Sinno	-4800
▁démar	-4801
▁https	-4802
▁incor	-4803
▁miijo	-4804
▁moƴƴe	-4805
▁parle	-4806
▁prend	-4807
▁waɗan	-4808
▁woɗɓe	-4809
▁Échec	-4810
▁ɓadii	-4811
iennent	-4812
ributor	-4813
▁celles	-4814
▁fruits	-4815
▁gaynii	-4816
▁laɓɓin	-4817
▁ndiyam	-4818
▁pierre	-4819
▁woniri	-4820
▁concern	-4821
▁prendre	-4822
▁demander	-4823
▁recevoir	-4824
▁ɲaawoore	-4825
▁téléphone	-4826
▁éternelle	-4827
contributor	-4828
▁utilisateurs	-4829
vendorShortName	-4830
URL	-4831
bis	-4832
don	-4833
qur	-4834
▁})	-4835
▁ém	-4836
aise	-4837
main	-4838
ueil	-4839
ypoc	-4840
▁Dem	-4841
▁Fii	-4842
▁foc	-4843
▁sul	-4844
indol	-4845
telol	-4846
trouv	-4847
ɓɓere	-4848
▁Bien	-4849
▁Labo	-4850
▁cité	-4851
▁haaj	-4852
▁jiiɓ	-4853
▁moof	-4854
▁sifa	-4855
▁temp	-4856
▁Ɗuum	-4857
Pellet	-4858
accomp	-4859
esprit	-4860
itugol	-4861
▁Alqur	-4862
▁Fouta	-4863
▁Fuɗɗo	-4864
▁class	-4865
▁darii	-4866
▁kelle	-4867
▁meere	-4868
▁nangi	-4869
▁précé	-4870
▁périr	-4871
▁égare	-4872
▁ɓural	-4873
▁ɲaamo	-4874
▁Connec	-4875
▁Pilate	-4876
▁contrô	-4877
▁daande	-4878
▁donnée	-4879
▁hesɗit	-4880
▁maaɗum	-4881
▁naange	-4882
▁témoin	-4883
▁weltor	-4884
▁woɗnde	-4885
▁ɗunɗoo	-4886
▁atteint	-4887
▁capture	-4888
▁propres	-4889
▁réiniti	-4890
▁yiytude	-4891
▁Jaaɓngal	-4892
▁fenêtres	-4893
▁jinnaaji	-4894
▁possible	-4895
▁connaître	-4896
20	-4897
DA	-4898
Qu	-4899
Ago	-4900
ewl	-4901
exp	-4902
▁Oo	-4903
▁né	-4904
aami	-4905
abbr	-4906
erai	-4907
nbsp	-4908
show	-4909
▁Dew	-4910
▁Mas	-4911
▁bol	-4912
▁bun	-4913
▁fil	-4914
▁mas	-4915
▁rel	-4916
▁sow	-4917
▁tol	-4918
▁ɓat	-4919
email	-4920
tiiɗo	-4921
tooɗo	-4922
établ	-4923
▁Annd	-4924
▁Plus	-4925
▁boni	-4926
▁dand	-4927
▁guér	-4928
▁iwru	-4929
▁juge	-4930
▁newn	-4931
▁plug	-4932
▁tagu	-4933
▁wide	-4934
▁Ɗakk	-4935
▁bonii	-4936
▁créés	-4937
▁direc	-4938
▁fodaa	-4939
▁fruit	-4940
▁goɗɗi	-4941
▁image	-4942
▁révél	-4943
▁sikke	-4944
TimeAgo	-4945
dessous	-4946
▁goongu	-4947
▁sortit	-4948
▁suffit	-4949
▁échoué	-4950
ablement	-4951
crophone	-4952
▁Paradis	-4953
▁session	-4954
▁ensemble	-4955
▁rassembl	-4956
▁désactivé	-4957
translatedC	-4958
▁développement	-4959
▁sacrificateur	-4960
cé	-4961
ml	-4962
cha	-4963
obé	-4964
pol	-4965
▁añ	-4966
aale	-4967
rati	-4968
ungo	-4969
vers	-4970
▁Har	-4971
▁Hul	-4972
▁aru	-4973
▁dix	-4974
▁exh	-4975
▁fix	-4976
▁kew	-4977
▁occ	-4978
▁sûr	-4979
▁wah	-4980
aites	-4981
ddude	-4982
▁Moof	-4983
▁Perm	-4984
▁bête	-4985
▁gard	-4986
▁layl	-4987
▁vent	-4988
oraaɗi	-4989
rivacy	-4990
▁doctr	-4991
▁faite	-4992
▁galle	-4993
▁hayre	-4994
▁maayi	-4995
▁piété	-4996
▁ɲaama	-4997
acement	-4998
onnaiss	-4999
▁Copier	-5000
▁eurent	-5001
▁naamne	-5002
▁proche	-5003
▁secour	-5004
▁vivant	-5005
▁blocage	-5006
▁combien	-5007
▁goɗngol	-5008
▁siècles	-5009
▁trouvée	-5010
▁manifest	-5011
▁Installer	-5012
▁consulter	-5013
▁cuɓoraaɗe	-5014
▁inattendu	-5015
▁laylaytol	-5016
▁réessayer	-5017
▁jaaɓnirgal	-5018
▁enregistrés	-5019
enregistrement	-5020
&#	-5021
Ne	-5022
où	-5023
èn	-5024
èv	-5025
All	-5026
doo	-5027
joo	-5028
uge	-5029
wdi	-5030
éni	-5031
▁Ke	-5032
▁cô	-5033
date	-5034
ires	-5035
orol	-5036
roit	-5037
▁CSS	-5038
▁Hiɗ	-5039
▁Sab	-5040
▁fus	-5041
▁tal	-5042
▁tuu	-5043
eures	-5044
irtaa	-5045
oggol	-5046
seaux	-5047
ublic	-5048
▁Très	-5049
▁affi	-5050
▁atta	-5051
▁bout	-5052
▁halk	-5053
▁jagg	-5054
▁mool	-5055
▁perv	-5056
▁rich	-5057
entend	-5058
witter	-5059
▁Jeyɗo	-5060
▁ahadi	-5061
▁faand	-5062
▁jungo	-5063
▁matin	-5064
▁ngesa	-5065
▁trône	-5066
écution	-5067
▁Huutor	-5068
▁Jokkol	-5069
▁diffic	-5070
▁existe	-5071
▁faveur	-5072
▁halfin	-5073
▁import	-5074
▁keewɗe	-5075
▁moftal	-5076
▁savons	-5077
airement	-5078
▁Choisir	-5079
▁Laatike	-5080
▁dernier	-5081
▁envoyés	-5082
▁fawaaki	-5083
▁lecture	-5084
▁ndeenka	-5085
▁utilise	-5086
▁Kuutorɗe	-5087
▁descendu	-5088
▁interdit	-5089
▁modifier	-5090
▁politique	-5091
▁répondirent	-5092
px	-5093
wr	-5094
ém	-5095
ɲu	-5096
▁q	-5097
lii	-5098
rog	-5099
thé	-5100
}</	-5101
▁OS	-5102
▁ir	-5103
aadi	-5104
aaƴe	-5105
ales	-5106
cour	-5107
emmb	-5108
▁Ali	-5109
▁Cuɓ	-5110
▁Fof	-5111
▁Kis	-5112
▁XML	-5113
▁duŋ	-5114
▁goû	-5115
▁kor	-5116
▁lit	-5117
▁élo	-5118
antaa	-5119
cessi	-5120
iller	-5121
nugol	-5122
titii	-5123
toɗon	-5124
under	-5125
▁'%1$	-5126
▁Dans	-5127
▁deeƴ	-5128
▁ella	-5129
▁waas	-5130
▁waɗu	-5131
awuuji	-5132
cessus	-5133
ection	-5134
iraawo	-5135
ouvern	-5136
▁Défin	-5137
▁Fuuta	-5138
▁boobo	-5139
▁corru	-5140
▁cruci	-5141
▁doute	-5142
▁endur	-5143
▁expos	-5144
▁fannu	-5145
▁hafor	-5146
▁leƴƴi	-5147
▁liens	-5148
▁ngoni	-5149
▁sappo	-5150
▁signe	-5151
▁ɓawto	-5152
▁arriva	-5153
▁messag	-5154
▁niveau	-5155
▁ɓadike	-5156
▁Aljanna	-5157
▁Ganndal	-5158
▁bireedi	-5159
▁pardonn	-5160
▁prenant	-5161
▁secours	-5162
▁travail	-5163
▁ñalorma	-5164
▁derniers	-5165
▁patience	-5166
▁travaill	-5167
▁winndere	-5168
▁continuer	-5169
▁multitude	-5170
▁rencontre	-5171
▁troisième	-5172
▁concernant	-5173
▁connaissances	-5174
▁confidentialité	-5175
!"	-5176
),	-5177
>,	-5178
Un	-5179
Acc	-5180
ats	-5181
bbi	-5182
cap	-5183
eem	-5184
emp	-5185
ige	-5186
sah	-5187
try	-5188
xim	-5189
▁Gu	-5190
▁Na	-5191
▁Op	-5192
▁us	-5193
bird	-5194
lace	-5195
orii	-5196
temp	-5197
▁201	-5198
▁Roo	-5199
▁Ver	-5200
▁daw	-5201
▁mba	-5202
▁yaw	-5203
▁ɗiɗ	-5204
Ruuhu	-5205
ermer	-5206
ettes	-5207
istra	-5208
oudre	-5209
rêter	-5210
érité	-5211
▁Donn	-5212
▁Fann	-5213
▁Hump	-5214
▁Ngal	-5215
▁débo	-5216
▁haɓɓ	-5217
▁jiwo	-5218
▁nawn	-5219
▁stoc	-5220
▁wels	-5221
▁Ñiiɓ	-5222
▁ƴell	-5223
ataano	-5224
espace	-5225
issons	-5226
▁Aslol	-5227
▁aller	-5228
▁annul	-5229
▁boîte	-5230
▁foule	-5231
▁magge	-5232
▁mangu	-5233
▁repos	-5234
▁style	-5235
▁tawno	-5236
▁wasiy	-5237
▁yiɗaa	-5238
Abraham	-5239
miraaɓe	-5240
uulirde	-5241
▁Lollin	-5242
▁dispos	-5243
▁salmin	-5244
▁tiiɗno	-5245
▁waɗani	-5246
lligence	-5247
ortation	-5248
▁Kuutoro	-5249
▁Yahuuda	-5250
▁jullere	-5251
▁partout	-5252
▁pervers	-5253
▁rewrude	-5254
▁wonugol	-5255
developer	-5256
underbird	-5257
▁incorrec	-5258
▁suivants	-5259
▁veuillez	-5260
▁wonndude	-5261
▁Choisissez	-5262
informations	-5263
▁localisation	-5264
BrandFullNameDA	-5265
PI	-5266
fr	-5267
▁6	-5268
lam	-5269
mon	-5270
▁ID	-5271
▁Nd	-5272
▁Te	-5273
adge	-5274
aime	-5275
aydi	-5276
eras	-5277
eroo	-5278
ôtre	-5279
▁Oui	-5280
▁Ren	-5281
▁gen	-5282
▁hat	-5283
▁kee	-5284
▁ore	-5285
▁piy	-5286
▁tar	-5287
auche	-5288
iniri	-5289
irtee	-5290
▁Aide	-5291
▁Dobo	-5292
▁ange	-5293
▁cinq	-5294
▁côté	-5295
▁fewj	-5296
▁hend	-5297
▁macc	-5298
▁makk	-5299
▁prie	-5300
▁tama	-5301
▁“%1$	-5302
action	-5303
anoowo	-5304
▁arude	-5305
▁daali	-5306
▁kaaƴe	-5307
▁nommé	-5308
▁vérit	-5309
▁yewti	-5310
▁étiez	-5311
accueil	-5312
▁Confir	-5313
▁cherch	-5314
▁devait	-5315
▁grands	-5316
▁njaram	-5317
▁wonani	-5318
▁yankin	-5319
▁Toppito	-5320
▁Yuusufu	-5321
▁battane	-5322
▁doivent	-5323
▁faisons	-5324
▁glorifi	-5325
▁haaniri	-5326
extension	-5327
▁Koohoojo	-5328
▁autorité	-5329
▁connecté	-5330
▁fonction	-5331
▁jaabawol	-5332
▁mbeleeɗe	-5333
▁menteurs	-5334
▁pourrait	-5335
▁premiers	-5336
▁runngere	-5337
▁ñalaande	-5338
▁binndanɗe	-5339
▁circoncis	-5340
▁laamateeri	-5341
▁uniquement	-5342
▁résurrection	-5343
▁reconnaissants	-5344
od	-5345
▁4	-5346
aie	-5347
auc	-5348
ios	-5349
jji	-5350
ogg	-5351
sie	-5352
ñal	-5353
▁!”	-5354
▁."	-5355
▁Fe	-5356
▁JS	-5357
▁ps	-5358
▁sp	-5359
▁th	-5360
akka	-5361
arch	-5362
aɗon	-5363
bile	-5364
dike	-5365
enus	-5366
fais	-5367
riya	-5368
tuɓe	-5369
uuɓe	-5370
xion	-5371
zare	-5372
▁Aad	-5373
▁Cap	-5374
▁Cet	-5375
▁For	-5376
▁lis	-5377
▁rim	-5378
▁Ɓet	-5379
ookre	-5380
tooje	-5381
▁Mark	-5382
▁Page	-5383
▁Uddu	-5384
▁hujj	-5385
▁jeen	-5386
▁neeɓ	-5387
▁njal	-5388
▁njee	-5389
▁njiy	-5390
▁prix	-5391
▁rédu	-5392
▁subs	-5393
▁sudd	-5394
▁tesk	-5395
button	-5396
emment	-5397
inaama	-5398
locale	-5399
ountry	-5400
▁Palal	-5401
▁aaden	-5402
▁baaba	-5403
▁belle	-5404
▁bindi	-5405
▁bonɗi	-5406
▁immii	-5407
▁maayo	-5408
▁moyen	-5409
▁muuyi	-5410
▁progr	-5411
▁ramen	-5412
▁waktu	-5413
▁ɓurɗe	-5414
▁ɗemɗe	-5415
orgueil	-5416
▁Nombre	-5417
▁Public	-5418
▁arsike	-5419
▁laator	-5420
▁paykun	-5421
▁prophé	-5422
▁visage	-5423
▁yiytaa	-5424
▁connais	-5425
▁guluuje	-5426
▁kaɓirɗi	-5427
▁panneau	-5428
▁tippude	-5429
tionnaire	-5430
▁Nokkuure	-5431
▁Winndito	-5432
▁bakkaatu	-5433
▁miracles	-5434
▁sécurisée	-5435
▁Heftinirde	-5436
▁Jaaɓnirgal	-5437
▁yottinoowo	-5438
▁complémentaire	-5439
ié	-5440
oŋ	-5441
▁Î	-5442
Awa	-5443
ack	-5444
jec	-5445
ray	-5446
wre	-5447
▁"%	-5448
▁lu	-5449
Vous	-5450
bbil	-5451
ecur	-5452
empl	-5453
eudo	-5454
irez	-5455
itre	-5456
iɗaa	-5457
onng	-5458
tile	-5459
uujo	-5460
ŋine	-5461
▁Exp	-5462
▁Kod	-5463
▁Lam	-5464
▁Noé	-5465
▁Sil	-5466
▁cul	-5467
▁jah	-5468
▁lég	-5469
▁mbo	-5470
▁Ñif	-5471
antee	-5472
daani	-5473
group	-5474
irani	-5475
oytaa	-5476
ueill	-5477
yeeji	-5478
égare	-5479
▁Pann	-5480
▁Phil	-5481
▁ayɓe	-5482
▁cess	-5483
▁feññ	-5484
▁hito	-5485
▁hoyn	-5486
▁lann	-5487
▁nenn	-5488
▁sanc	-5489
▁trib	-5490
▁wull	-5491
Worker	-5492
▁Jooma	-5493
▁convo	-5494
▁darja	-5495
▁ordre	-5496
▁rejet	-5497
▁sauve	-5498
▁sinon	-5499
▁terme	-5500
alement	-5501
étaient	-5502
▁Laawol	-5503
▁brebis	-5504
▁envoya	-5505
▁formul	-5506
▁jaajol	-5507
▁leggal	-5508
▁mirent	-5509
▁serons	-5510
▁weeɓit	-5511
tensions	-5512
▁Nightly	-5513
▁accéder	-5514
▁annonce	-5515
▁article	-5516
▁entière	-5517
▁faisait	-5518
▁feewuɗo	-5519
▁gouvern	-5520
▁inconnu	-5521
▁jamaanu	-5522
▁neldude	-5523
▁science	-5524
▁welsind	-5525
▁contient	-5526
▁doctrine	-5527
▁goonguɓe	-5528
▁hoolaare	-5529
▁inconnue	-5530
▁kurkaadu	-5531
▁montagne	-5532
▁meilleure	-5533
▁ressource	-5534
▁ƴeewtaade	-5535
▁Thunderbird	-5536
▁sakkitiinde	-5537
▁Sélectionner	-5538
HA	-5539
ño	-5540
alo	-5541
cci	-5542
eus	-5543
loo	-5544
ryp	-5545
ɗam	-5546
▁Ob	-5547
▁be	-5548
affi	-5549
dire	-5550
fiée	-5551
itié	-5552
ombe	-5553
ulɓe	-5554
ésar	-5555
▁Jig	-5556
▁Kon	-5557
▁SHA	-5558
▁Tee	-5559
▁aan	-5560
▁fuɗ	-5561
▁gaa	-5562
▁sut	-5563
▁ten	-5564
agere	-5565
ettez	-5566
galle	-5567
rigin	-5568
▁Code	-5569
▁Lock	-5570
▁aime	-5571
▁ajou	-5572
▁caɗe	-5573
▁chev	-5574
▁dess	-5575
▁faab	-5576
▁hatt	-5577
▁hulu	-5578
▁huɓɓ	-5579
▁kaaw	-5580
▁kaso	-5581
▁keso	-5582
▁nana	-5583
▁tanƴ	-5584
enfant	-5585
itaaki	-5586
otooɗe	-5587
▁Ayant	-5588
▁César	-5589
▁Duuɗe	-5590
▁Gérer	-5591
▁Lepte	-5592
▁Nuuhu	-5593
▁Toute	-5594
▁Tradu	-5595
▁améli	-5596
▁bayle	-5597
▁bonɗe	-5598
▁canɗi	-5599
▁coule	-5600
▁engag	-5601
▁fawii	-5602
▁huuto	-5603
▁lannd	-5604
▁objet	-5605
▁passé	-5606
▁resta	-5607
▁sanam	-5608
▁œuvre	-5609
Univers	-5610
ecurity	-5611
itoonde	-5612
privacy	-5613
▁Faites	-5614
▁Jakkaa	-5615
▁acquis	-5616
▁crimin	-5617
▁fidèle	-5618
▁haqqil	-5619
▁heddii	-5620
▁maayii	-5621
▁petits	-5622
▁voient	-5623
▁wirnii	-5624
▁éprouv	-5625
▁étions	-5626
Karamoko	-5627
▁Ndeenka	-5628
▁Twitter	-5629
▁activer	-5630
▁appelés	-5631
▁liaison	-5632
▁moƴƴiri	-5633
▁rewetee	-5634
▁sagalle	-5635
fications	-5636
installer	-5637
▁accompli	-5638
▁contexte	-5639
▁entendre	-5640
▁prochain	-5641
▁sépulcre	-5642
brandShort	-5643
▁mauvaises	-5644
▁ummoraade	-5645
▁historique	-5646
▁poomayanke	-5647
▁Ɗaɓɓitannde	-5648
Ka	-5649
Oo	-5650
SA	-5651
yo	-5652
»,	-5653
▁0	-5654
jom	-5655
kku	-5656
men	-5657
nol	-5658
oit	-5659
rol	-5660
▁30	-5661
▁<%	-5662
▁Ni	-5663
▁da	-5664
▁Éc	-5665
ible	-5666
inol	-5667
utes	-5668
écri	-5669
▁Fin	-5670
▁Pol	-5671
▁Ton	-5672
▁brû	-5673
▁heɗ	-5674
▁meh	-5675
▁por	-5676
addon	-5677
alisé	-5678
après	-5679
cteur	-5680
temps	-5681
▁Voir	-5682
▁bayy	-5683
▁chaî	-5684
▁inte	-5685
▁leel	-5686
▁mbar	-5687
▁rent	-5688
▁soir	-5689
▁trou	-5690
▁yill	-5691
gorith	-5692
termin	-5693
érique	-5694
▁Hulee	-5695
▁Roomu	-5696
▁créer	-5697
▁fenni	-5698
▁fille	-5699
▁infid	-5700
▁parab	-5701
▁prati	-5702
▁seede	-5703
▁sulfu	-5704
▁waaju	-5705
▁waɗay	-5706
urmitin	-5707
▁invent	-5708
▁jebbil	-5709
▁nouvel	-5710
▁renvoy	-5711
▁script	-5712
▁seedee	-5713
▁suivre	-5714
▁yaawde	-5715
onnexion	-5716
▁Adresse	-5717
▁Bloquer	-5718
▁donnera	-5719
▁exemple	-5720
▁fiyaaku	-5721
▁jurriya	-5722
▁produit	-5723
▁utilisé	-5724
▁ɓaŋŋine	-5725
▁spécifié	-5726
▁Ñalaande	-5727
▁divinités	-5728
▁mawnintin	-5729
ER	-5730
în	-5731
>%(	-5732
adu	-5733
eth	-5734
gra	-5735
hab	-5736
rin	-5737
ute	-5738
▁Ag	-5739
▁Où	-5740
▁aɲ	-5741
▁bu	-5742
anis	-5743
ator	-5744
clus	-5745
dule	-5746
page	-5747
prim	-5748
tait	-5749
tats	-5750
téri	-5751
▁DOM	-5752
▁Lim	-5753
▁Ont	-5754
▁Sah	-5755
▁Wak	-5756
▁cii	-5757
▁hel	-5758
▁lar	-5759
▁pul	-5760
▁sta	-5761
▁étr	-5762
aanga	-5763
aharu	-5764
analy	-5765
angal	-5766
chera	-5767
gooto	-5768
ingal	-5769
place	-5770
étais	-5771
ɗɗito	-5772
▁capt	-5773
▁détr	-5774
▁jowi	-5775
▁maak	-5776
▁méch	-5777
▁nand	-5778
▁niɓe	-5779
▁suuɗ	-5780
▁tapp	-5781
▁voit	-5782
▁ɗuur	-5783
inaaka	-5784
ouvrez	-5785
unoɗon	-5786
▁Anndi	-5787
▁entré	-5788
▁hypoc	-5789
▁impos	-5790
▁lajal	-5791
▁mêmes	-5792
▁noppi	-5793
▁ruuhu	-5794
▁sorti	-5795
▁torii	-5796
▁élevé	-5797
▁Goonga	-5798
▁Partag	-5799
▁barque	-5800
▁binndi	-5801
▁conven	-5802
▁crains	-5803
▁dépens	-5804
▁honɗum	-5805
▁immint	-5806
▁kaalis	-5807
▁maayde	-5808
▁malade	-5809
▁ngannd	-5810
▁ngonka	-5811
▁njoddi	-5812
▁succès	-5813
▁venant	-5814
▁vienne	-5815
▁ɓeyngu	-5816
appareil	-5817
autorité	-5818
▁Effacer	-5819
▁Jacques	-5820
▁Philipp	-5821
▁appelle	-5822
▁empêché	-5823
▁faisant	-5824
▁huutoro	-5825
▁kenorɗe	-5826
▁maisons	-5827
▁parlait	-5828
▁perform	-5829
▁widewoo	-5830
▁Lockwise	-5831
▁bienfais	-5832
▁oreilles	-5833
▁repentir	-5834
▁Binndanɗe	-5835
▁Connectez	-5836
▁Reweteeɗo	-5837
▁différent	-5838
▁longtemps	-5839
estionnaire	-5840
▁Paramètres	-5841
▁modification	-5842
DF	-5843
çu	-5844
ét	-5845
ast	-5846
kke	-5847
mba	-5848
owo	-5849
tem	-5850
uer	-5851
ène	-5852
Ɓii	-5853
▁Ab	-5854
▁Aw	-5855
Enee	-5856
aabu	-5857
data	-5858
eric	-5859
face	-5860
irɗo	-5861
orce	-5862
undu	-5863
uudu	-5864
view	-5865
▁Ces	-5866
▁Jiy	-5867
▁Kor	-5868
▁fay	-5869
▁het	-5870
▁inn	-5871
▁via	-5872
▁Ɓii	-5873
amour	-5874
forme	-5875
otent	-5876
rites	-5877
▁Cuɓe	-5878
▁Hari	-5879
▁doos	-5880
▁naɓi	-5881
▁parv	-5882
▁plac	-5883
▁plui	-5884
▁saur	-5885
▁sect	-5886
▁wenn	-5887
▁énor	-5888
aumône	-5889
kkoroo	-5890
moftal	-5891
▁Baaba	-5892
▁Rutto	-5893
▁chass	-5894
▁maraa	-5895
▁ndeen	-5896
▁résol	-5897
▁sengo	-5898
▁sifor	-5899
▁suivi	-5900
▁égard	-5901
Firefox	-5902
ocation	-5903
▁Chrome	-5904
▁demeur	-5905
▁démons	-5906
▁désert	-5907
▁firent	-5908
▁garder	-5909
▁heures	-5910
▁keftin	-5911
▁minist	-5912
▁mobile	-5913
▁moteur	-5914
aajeendi	-5915
▁Redémar	-5916
▁assujet	-5917
▁croyons	-5918
▁demanda	-5919
▁demandé	-5920
▁gomɗuɓe	-5921
▁injuste	-5922
▁justifi	-5923
▁parents	-5924
▁préparé	-5925
▁tintine	-5926
▁Runngere	-5927
▁commandé	-5928
▁derrière	-5929
▁haanirta	-5930
▁seytaane	-5931
▁banngagol	-5932
▁souhaitez	-5933
information	-5934
▁kesɗitinal	-5935
▁sélectionné	-5936
▁Sélectionnez	-5937
▁actuellement	-5938
▁commencement	-5939
▁ServiceWorker	-5940
▁poomayankejan	-5941
4$	-5942
ON	-5943
éb	-5944
ŋk	-5945
”.	-5946
IME	-5947
erg	-5948
itr	-5949
non	-5950
oux	-5951
ues	-5952
▁It	-5953
▁Mu	-5954
▁Pl	-5955
▁hâ	-5956
▁is	-5957
▁év	-5958
Cont	-5959
Kala	-5960
Wota	-5961
aler	-5962
anon	-5963
atta	-5964
avec	-5965
duko	-5966
eeɓe	-5967
kiso	-5968
ordu	-5969
ples	-5970
pons	-5971
reuv	-5972
uire	-5973
ythé	-5974
▁Ado	-5975
▁Key	-5976
▁Luu	-5977
▁Mac	-5978
▁Sat	-5979
▁Yal	-5980
▁cad	-5981
▁iwr	-5982
▁kañ	-5983
▁kol	-5984
▁net	-5985
arrêt	-5986
firde	-5987
irgal	-5988
itoto	-5989
naaki	-5990
nirɗe	-5991
tuuji	-5992
ystem	-5993
▁Daal	-5994
▁Dokk	-5995
▁Fich	-5996
▁Isaa	-5997
▁Peut	-5998
▁Waaw	-5999
▁hunn	-6000
▁jeyi	-6001
▁nano	-6002
▁njam	-6003
▁sinc	-6004
▁sonn	-6005
▁sœur	-6006
▁tagi	-6007
▁wujj	-6008
▁yaaj	-6009
codage	-6010
eroodu	-6011
ineede	-6012
number	-6013
otonoo	-6014
▁Defte	-6015
▁Jacob	-6016
▁Muuyi	-6017
▁Nanng	-6018
▁Natal	-6019
▁Yamre	-6020
▁aband	-6021
▁avanc	-6022
▁coupe	-6023
▁fello	-6024
▁gaayi	-6025
▁heɓaa	-6026
▁jawdi	-6027
▁maand	-6028
▁morte	-6029
▁prise	-6030
▁sakko	-6031
▁tiiɗi	-6032
ilement	-6033
ivement	-6034
tinaama	-6035
▁Fermer	-6036
▁Prenez	-6037
▁activé	-6038
▁addani	-6039
▁autour	-6040
▁baharu	-6041
▁contac	-6042
▁dolokk	-6043
▁expiré	-6044
▁ferons	-6045
▁gootol	-6046
▁guidés	-6047
▁gundoo	-6048
▁hookre	-6049
▁maggal	-6050
▁promis	-6051
▁pseudo	-6052
▁renndo	-6053
▁saanga	-6054
▁sortes	-6055
▁tempor	-6056
▁waɗɗii	-6057
▁wonɗon	-6058
inscrire	-6059
onnement	-6060
▁Cliquez	-6061
▁conserv	-6062
▁effectu	-6063
▁ennemis	-6064
▁mbaawaa	-6065
▁moƴƴuɓe	-6066
▁polythé	-6067
▁Services	-6068
▁aveugles	-6069
▁discours	-6070
▁golloton	-6071
▁gomɗinii	-6072
▁perdants	-6073
▁pittaali	-6074
▁utilisez	-6075
yottinooɓe	-6076
▁Fanndanoo	-6077
▁laatinoke	-6078
▁yamirooje	-6079
▁désactiver	-6080
▁faasiqiiɓe	-6081
▁humondiral	-6082
▁avertisseur	-6083
établissement	-6084
▁confirmation	-6085
▁accomplissent	-6086
7;	-6087
?!	-6088
ww	-6089
▁\	-6090
cur	-6091
ele	-6092
koy	-6093
yng	-6094
▁tw	-6095
▁ve	-6096
atal	-6097
awii	-6098
chée	-6099
iren	-6100
jout	-6101
omon	-6102
tina	-6103
toyi	-6104
uses	-6105
▁Dam	-6106
▁Maw	-6107
▁Rec	-6108
▁Tim	-6109
▁ach	-6110
▁kaŋ	-6111
▁mut	-6112
▁sun	-6113
▁tef	-6114
▁vic	-6115
▁yow	-6116
▁}">	-6117
Heure	-6118
erait	-6119
inira	-6120
onges	-6121
torol	-6122
trict	-6123
uttin	-6124
▁Jaɓɓ	-6125
▁Reen	-6126
▁Yuuh	-6127
▁cuur	-6128
▁gaaw	-6129
▁jaaw	-6130
▁jiil	-6131
▁seer	-6132
▁situ	-6133
▁tuun	-6134
▁wayi	-6135
▁wewl	-6136
▁yiil	-6137
inaaɓe	-6138
ireede	-6139
ondira	-6140
tondir	-6141
▁Artir	-6142
▁Envoy	-6143
▁Israa	-6144
▁Judée	-6145
▁Ongle	-6146
▁baali	-6147
▁carte	-6148
▁désir	-6149
▁fowte	-6150
▁hujja	-6151
▁journ	-6152
▁niwre	-6153
▁prodi	-6154
▁retir	-6155
▁stock	-6156
▁wahay	-6157
▁woori	-6158
annaaji	-6159
ongueur	-6160
version	-6161
▁envoie	-6162
▁jaŋtol	-6163
▁jokkel	-6164
▁laisse	-6165
▁marche	-6166
▁ordonn	-6167
▁partic	-6168
▁servir	-6169
▁trouva	-6170
▁verrou	-6171
gorithme	-6172
▁Nanoowo	-6173
▁andugol	-6174
▁anndude	-6175
▁détails	-6176
▁essayer	-6177
▁eɓɓoore	-6178
▁jogitor	-6179
▁nations	-6180
▁notific	-6181
▁prières	-6182
▁wowlude	-6183
▁Yuuhanna	-6184
▁contrôle	-6185
▁kuukiije	-6186
▁malveill	-6187
▁meetelol	-6188
▁sirkooɓe	-6189
▁Yurmeende	-6190
▁confirmer	-6191
▁infidèles	-6192
▁jamirooje	-6193
▁manifeste	-6194
▁mécréance	-6195
▁ɓanngunde	-6196
▁Huutoraade	-6197
▁microphone	-6198
▁wallitorde	-6199
▁denndaangal	-6200
03	-6201
Vo	-6202
my	-6203
▁Ŋ	-6204
%3$	-6205
ORS	-6206
cle	-6207
vez	-6208
ammb	-6209
ammi	-6210
atar	-6211
eece	-6212
http	-6213
iiri	-6214
ingo	-6215
more	-6216
omɓe	-6217
once	-6218
suiv	-6219
tate	-6220
uwel	-6221
çons	-6222
▁Cif	-6223
▁Kar	-6224
▁PDF	-6225
▁Sac	-6226
▁Tun	-6227
▁Vos	-6228
▁fah	-6229
▁fan	-6230
▁hér	-6231
▁mbi	-6232
▁obl	-6233
▁éto	-6234
aisse	-6235
cepte	-6236
count	-6237
dront	-6238
eewte	-6239
ernet	-6240
ignes	-6241
isson	-6242
kiiji	-6243
noɗon	-6244
objet	-6245
tunoo	-6246
▁Aaya	-6247
▁CORS	-6248
▁Faal	-6249
▁Nden	-6250
▁Wano	-6251
▁Yuɓɓ	-6252
▁bits	-6253
▁dakm	-6254
▁faim	-6255
▁gese	-6256
▁hade	-6257
▁hiɗi	-6258
▁jalk	-6259
▁kafi	-6260
▁laaw	-6261
▁lidd	-6262
▁lont	-6263
▁mbaɗ	-6264
▁sala	-6265
▁sokl	-6266
▁trés	-6267
▁vide	-6268
▁yoɓe	-6269
▁âmes	-6270
▁ɓooy	-6271
erName	-6272
ormais	-6273
outils	-6274
érieur	-6275
▁Créer	-6276
▁Engel	-6277
▁clair	-6278
▁ferme	-6279
▁jinna	-6280
▁keyng	-6281
▁libre	-6282
▁moodi	-6283
▁neema	-6284
▁pains	-6285
▁poitr	-6286
▁réuss	-6287
▁secou	-6288
▁tiers	-6289
▁vertu	-6290
▁yiɓɓe	-6291
ciingol	-6292
etplace	-6293
formatS	-6294
quelles	-6295
▁Taguɗo	-6296
▁Toutes	-6297
▁compos	-6298
▁consol	-6299
▁gauche	-6300
▁hakkil	-6301
▁joopol	-6302
▁maladi	-6303
▁montre	-6304
▁plugin	-6305
▁semble	-6306
▁énorme	-6307
Seigneur	-6308
ministra	-6309
▁Teeŋtin	-6310
▁aafeede	-6311
▁ceŋagol	-6312
▁console	-6313
▁fiyaake	-6314
▁kaalisi	-6315
▁menteur	-6316
▁salaama	-6317
▁salaire	-6318
▁travers	-6319
▁vérifié	-6320
▁Peeragol	-6321
▁baylital	-6322
▁enternet	-6323
▁réponses	-6324
▁ɓannguɗo	-6325
▁Connexion	-6326
▁criminels	-6327
▁jokkondir	-6328
▁enregistré	-6329
▁huutoreede	-6330
▁jaabawuuji	-6331
▁Identifiant	-6332
▁Marketplace	-6333
▁fowteteende	-6334
▁identifiant	-6335
brandShorterName	-6336
16	-6337
19	-6338
Ar	-6339
Im	-6340
Me	-6341
TE	-6342
xe	-6343
Éc	-6344
ada	-6345
awu	-6346
aɲɲ	-6347
err	-6348
get	-6349
ika	-6350
pti	-6351
ule	-6352
wii	-6353
yoo	-6354
Audi	-6355
aaba	-6356
acte	-6357
eejo	-6358
esti	-6359
hift	-6360
oint	-6361
serv	-6362
tifs	-6363
uyez	-6364
▁Bal	-6365
▁Eto	-6366
▁His	-6367
▁Ret	-6368
▁Syn	-6369
▁inv	-6370
▁kum	-6371
▁noo	-6372
▁raɗ	-6373
▁ris	-6374
Menen	-6375
charg	-6376
endit	-6377
iinde	-6378
▁Biro	-6379
▁coul	-6380
▁couv	-6381
▁dist	-6382
▁dons	-6383
▁face	-6384
▁fens	-6385
▁hare	-6386
▁hoɗo	-6387
▁iwdi	-6388
▁jaka	-6389
▁péri	-6390
▁quar	-6391
▁senn	-6392
▁stra	-6393
▁tawd	-6394
▁waal	-6395
▁ɗayn	-6396
anaali	-6397
anagol	-6398
ribute	-6399
tingol	-6400
▁Julde	-6401
▁Parce	-6402
▁duule	-6403
▁délai	-6404
▁détru	-6405
▁ferai	-6406
▁geece	-6407
▁jogor	-6408
▁kesol	-6409
▁ngayn	-6410
▁peine	-6411
▁perdu	-6412
▁suite	-6413
▁telle	-6414
▁wiiɲu	-6415
▁wulaa	-6416
▁ñawnd	-6417
▁ŋakki	-6418
▁Config	-6419
▁Fewndo	-6420
▁Hannde	-6421
▁arunoo	-6422
▁diidol	-6423
▁désobé	-6424
▁ennemi	-6425
▁instru	-6426
▁kuugal	-6427
▁piille	-6428
▁portes	-6429
▁réserv	-6430
▁unique	-6431
▁Parfait	-6432
▁Personn	-6433
▁Regarde	-6434
▁croyant	-6435
▁pauvres	-6436
▁waɗaali	-6437
▁wonaano	-6438
▁épouses	-6439
▁ɗaɓɓude	-6440
syncBrand	-6441
▁Philippe	-6442
▁Ruttorde	-6443
▁attendue	-6444
▁feewaani	-6445
▁logiciel	-6446
▁longueur	-6447
▁annabaajo	-6448
▁habitants	-6449
▁mensonges	-6450
▁particuli	-6451
▁teeŋtinde	-6452
▁woondirii	-6453
▁Aljannaaji	-6454
▁détournent	-6455
▁hypocrites	-6456
▁jertinoowo	-6457
▁chiffrement	-6458
▁enregistrer	-6459
▁Informations	-6460
▁performances	-6461
▁personnelles	-6462
▁vérification	-6463
›,	-6464
Est	-6465
aɓe	-6466
doc	-6467
fiq	-6468
kul	-6469
tel	-6470
tie	-6471
yri	-6472
▁Fl	-6473
▁Hu	-6474
▁ra	-6475
Miɗo	-6476
aaqa	-6477
ains	-6478
cent	-6479
cien	-6480
ensh	-6481
eree	-6482
gage	-6483
icon	-6484
itez	-6485
oyii	-6486
wnde	-6487
▁Aar	-6488
▁Baɗ	-6489
▁Enf	-6490
▁Too	-6491
▁dal	-6492
▁dom	-6493
▁jay	-6494
▁kii	-6495
▁lon	-6496
▁mej	-6497
▁tre	-6498
▁ɓaɗ	-6499
▁ɓit	-6500
abord	-6501
alent	-6502
andal	-6503
caped	-6504
dules	-6505
ilsil	-6506
parer	-6507
thode	-6508
torɗe	-6509
ullii	-6510
Ɓiɗɗo	-6511
▁Hakk	-6512
▁addi	-6513
▁angl	-6514
▁chef	-6515
▁femp	-6516
▁inté	-6517
▁jant	-6518
▁mott	-6519
▁noms	-6520
▁okki	-6521
▁prob	-6522
▁raɓɓ	-6523
▁ruis	-6524
indiri	-6525
taient	-6526
teendi	-6527
térité	-6528
▁Heure	-6529
▁Kisal	-6530
▁Linux	-6531
▁Wonɗo	-6532
▁anndu	-6533
▁dambu	-6534
▁ewnii	-6535
▁forte	-6536
▁jeûne	-6537
▁march	-6538
▁parlé	-6539
▁référ	-6540
▁sépar	-6541
▁tabit	-6542
▁troup	-6543
▁wonay	-6544
▁ŋalɗi	-6545
browser	-6546
creensh	-6547
escaped	-6548
numeric	-6549
shorter	-6550
▁Pocket	-6551
▁Taille	-6552
▁afflig	-6553
▁allait	-6554
▁bolond	-6555
▁commis	-6556
▁daaƴde	-6557
▁donnez	-6558
▁durant	-6559
▁gollal	-6560
▁mbaadi	-6561
▁nation	-6562
▁nattii	-6563
▁ndaara	-6564
▁ndarnd	-6565
▁ouvres	-6566
▁reçoit	-6567
▁taille	-6568
▁virent	-6569
▁yahude	-6570
▁échapp	-6571
hostname	-6572
onngoode	-6573
érations	-6574
▁Henorde	-6575
▁Konngol	-6576
▁Retirer	-6577
▁apporté	-6578
▁ceŋorɗe	-6579
▁compris	-6580
▁faibles	-6581
▁laaɓuɓe	-6582
▁suivent	-6583
▁suɓaade	-6584
▁toɓɓere	-6585
▁waylude	-6586
▁Dernière	-6587
▁attribué	-6588
▁hesɗitin	-6589
▁miijooji	-6590
▁rapports	-6591
▁Cuɓoraaɗe	-6592
▁Kesɗitine	-6593
▁dernières	-6594
▁udditiiɗe	-6595
▁woowaande	-6596
▁Humpitiiɗo	-6597
▁corruption	-6598
▁hesɗitinde	-6599
▁impossible	-6600
▁correctement	-6601
▁polythéistes	-6602
▁sélectionner	-6603
▁notifications	-6604
CK	-6605
ms	-6606
tè	-6607
IST	-6608
dez	-6609
ecc	-6610
igg	-6611
lex	-6612
moz	-6613
mée	-6614
nip	-6615
oix	-6616
ulu	-6617
ɲal	-6618
aafa	-6619
anda	-6620
angu	-6621
atte	-6622
ayɗi	-6623
ener	-6624
euse	-6625
html	-6626
imbi	-6627
ingu	-6628
mini	-6629
tiqu	-6630
tira	-6631
udaa	-6632
vant	-6633
çant	-6634
▁Env	-6635
▁Lew	-6636
▁ase	-6637
▁bel	-6638
▁dan	-6639
▁gad	-6640
▁ooñ	-6641
▁pen	-6642
▁qir	-6643
▁six	-6644
▁écl	-6645
Event	-6646
aimés	-6647
ancer	-6648
aître	-6649
berté	-6650
ciple	-6651
ertes	-6652
gugol	-6653
jaari	-6654
teɗon	-6655
tives	-6656
érode	-6657
▁Cakk	-6658
▁Hiɗa	-6659
▁Leem	-6660
▁bour	-6661
▁déch	-6662
▁dépl	-6663
▁heɓu	-6664
▁hurm	-6665
▁jang	-6666
▁jeun	-6667
▁junn	-6668
▁kene	-6669
▁labo	-6670
▁lire	-6671
▁quit	-6672
▁ronn	-6673
▁soum	-6674
▁tran	-6675
itions	-6676
lement	-6677
orante	-6678
review	-6679
taango	-6680
taynoo	-6681
▁Aidez	-6682
▁Badge	-6683
▁Kamɓe	-6684
▁Reent	-6685
▁Resta	-6686
▁Wallu	-6687
▁Yurme	-6688
▁bomɓe	-6689
▁cuɗaa	-6690
▁defte	-6691
▁excep	-6692
▁fahin	-6693
▁forni	-6694
▁gratu	-6695
▁hewti	-6696
▁hojom	-6697
▁honte	-6698
▁jaɓii	-6699
▁jokke	-6700
▁jokku	-6701
▁kaŋŋe	-6702
▁monta	-6703
▁njaru	-6704
▁perte	-6705
▁puiss	-6706
▁verre	-6707
▁wuuri	-6708
▁yeddi	-6709
▁Ɓural	-6710
▁ɓurti	-6711
aanaare	-6712
accompl	-6713
analyse	-6714
assembl	-6715
▁Mbayka	-6716
▁adress	-6717
▁etaade	-6718
▁excell	-6719
▁goɗɗum	-6720
▁guerre	-6721
▁kullii	-6722
▁laaɓal	-6723
▁moolan	-6724
▁oublié	-6725
▁pister	-6726
▁prenez	-6727
▁reende	-6728
▁refuge	-6729
▁sainte	-6730
▁waɗata	-6731
▁wongal	-6732
nipotent	-6733
▁Certain	-6734
▁approuv	-6735
▁heɓaali	-6736
▁hisaani	-6737
▁longini	-6738
▁louange	-6739
▁toragol	-6740
▁disciple	-6741
▁esclaves	-6742
▁haalaaji	-6743
▁laataaki	-6744
▁momtaama	-6745
▁nooneeji	-6746
▁protéger	-6747
▁présence	-6748
▁résultat	-6749
▁sécurisé	-6750
▁viennent	-6751
creenshots	-6752
▁Consultez	-6753
▁cherchent	-6754
▁ministère	-6755
▁postérité	-6756
▁ressuscit	-6757
▁richesses	-6758
▁ruisseaux	-6759
▁récompens	-6760
▁synagogue	-6761
▁Ɗakkannde	-6762
▁sahaabaaɓe	-6763
▁transgress	-6764
▁Certificate	-6765
▁ɗaɓɓitannde	-6766
▁bienfaisants	-6767
▁configuration	-6768
▁fonctionnalité	-6769
-2	-6770
De	-6771
eñ	-6772
fx	-6773
▁>	-6774
day	-6775
ddo	-6776
key	-6777
olé	-6778
ves	-6779
écu	-6780
ôte	-6781
▁50	-6782
▁pé	-6783
037;	-6784
Pins	-6785
abri	-6786
assé	-6787
irdu	-6788
oɗon	-6789
uusi	-6790
ɗuɗo	-6791
▁...	-6792
▁Pay	-6793
▁cop	-6794
▁dob	-6795
▁dun	-6796
▁ewn	-6797
▁jel	-6798
▁nég	-6799
▁ois	-6800
▁réf	-6801
aalun	-6802
aleur	-6803
chage	-6804
error	-6805
ettra	-6806
inani	-6807
onnés	-6808
orike	-6809
prise	-6810
▁NIST	-6811
▁Ngoo	-6812
▁fixé	-6813
▁fonn	-6814
▁fête	-6815
▁happ	-6816
▁konu	-6817
▁magg	-6818
▁ndaɗ	-6819
▁niɓɓ	-6820
▁pell	-6821
▁proc	-6822
▁prov	-6823
▁rang	-6824
▁romp	-6825
▁ronk	-6826
▁sago	-6827
▁sank	-6828
▁secp	-6829
▁siif	-6830
▁tooɲ	-6831
▁ŋaɲɲ	-6832
amment	-6833
anaade	-6834
anooɓe	-6835
ereeji	-6836
inorde	-6837
unooɗo	-6838
▁Essay	-6839
▁Nokku	-6840
▁abond	-6841
▁bonɓe	-6842
▁colli	-6843
▁conse	-6844
▁forma	-6845
▁giiɗe	-6846
▁goomu	-6847
▁gorol	-6848
▁guéri	-6849
▁lebbi	-6850
▁mbatu	-6851
▁mbela	-6852
▁média	-6853
▁sikku	-6854
▁tarde	-6855
▁watti	-6856
▁wonti	-6857
▁ñaamo	-6858
▁ɲaami	-6859
accessi	-6860
ansport	-6861
araître	-6862
dentité	-6863
instant	-6864
windows	-6865
▁Aadama	-6866
▁Mettre	-6867
▁Permis	-6868
▁Strict	-6869
▁croire	-6870
▁daaƴaa	-6871
▁explic	-6872
▁facile	-6873
▁gandal	-6874
▁gootal	-6875
▁goûter	-6876
▁mbayka	-6877
▁numéro	-6878
▁protoc	-6879
▁égarés	-6880
juulirde	-6881
uuteendi	-6882
Écriture	-6883
▁Malheur	-6884
▁Salomon	-6885
▁assembl	-6886
▁choisir	-6887
▁convoit	-6888
▁déclaré	-6889
▁essayez	-6890
▁fodaari	-6891
▁hunduko	-6892
▁jardins	-6893
▁jippini	-6894
▁liberté	-6895
▁limoore	-6896
▁mariage	-6897
▁partage	-6898
▁répondu	-6899
▁semaine	-6900
▁yamiraa	-6901
Attribute	-6902
exécution	-6903
▁Partager	-6904
▁captures	-6905
▁demeures	-6906
▁faalaaka	-6907
▁nokkuɗin	-6908
▁obéissez	-6909
▁pardonne	-6910
▁partager	-6911
▁peeragol	-6912
▁salminii	-6913
▁ɲaametee	-6914
▁caractère	-6915
▁faisaient	-6916
▁glorifier	-6917
▁mbarjaari	-6918
▁reweteeɗi	-6919
▁sadakaaji	-6920
▁vêtements	-6921
▁également	-6922
▁ƴeewtagol	-6923
▁Barnabaasi	-6924
▁Omnipotent	-6925
▁Synchronis	-6926
▁jouissance	-6927
▁rewindaade	-6928
▁sauvegarde	-6929
▁supplément	-6930
▁redémarrage	-6931
▁Parfaitement	-6932
▁parfaitement	-6933
▁commandements	-6934
La	-6935
Om	-6936
Su	-6937
gy	-6938
ix	-6939
yu	-6940
eté	-6941
jin	-6942
kon	-6943
lui	-6944
mam	-6945
pri	-6946
sit	-6947
www	-6948
élé	-6949
▁Ba	-6950
▁nœ	-6951
▁of	-6952
ache	-6953
amin	-6954
anne	-6955
asph	-6956
iipu	-6957
indo	-6958
onii	-6959
oute	-6960
oyto	-6961
pris	-6962
text	-6963
utal	-6964
âque	-6965
▁Mot	-6966
▁Yaw	-6967
▁Yet	-6968
▁abs	-6969
▁baŋ	-6970
▁cat	-6971
▁has	-6972
▁lib	-6973
▁pam	-6974
▁rav	-6975
▁reb	-6976
▁veu	-6977
▁Ɓur	-6978
▁Ɗem	-6979
▁ƴaw	-6980
aalde	-6981
arget	-6982
autés	-6983
blank	-6984
kinɓe	-6985
learn	-6986
oytee	-6987
tinaa	-6988
tunde	-6989
ɗugol	-6990
▁<%1$	-6991
▁Actu	-6992
▁Anti	-6993
▁Tiit	-6994
▁arde	-6995
▁bapt	-6996
▁bord	-6997
▁cham	-6998
▁dogi	-6999
▁déte	-7000
▁gagn	-7001
▁jarn	-7002
▁koll	-7003
▁kurk	-7004
▁muuɗ	-7005
▁waɗo	-7006
▁yaar	-7007
▁écar	-7008
argent	-7009
iniraa	-7010
istant	-7011
tables	-7012
udaasi	-7013
▁Daali	-7014
▁Goɗɗo	-7015
▁Jiggo	-7016
▁Satan	-7017
▁Waɗii	-7018
▁cadre	-7019
▁haute	-7020
▁incré	-7021
▁jeune	-7022
▁leɗɗe	-7023
▁mawɗe	-7024
▁oblig	-7025
▁placé	-7026
▁plais	-7027
▁promp	-7028
▁serai	-7029
▁seras	-7030
▁signi	-7031
▁soono	-7032
▁taƴre	-7033
▁utile	-7034
▁voyez	-7035
▁yaadu	-7036
▁yonii	-7037
▁ñaama	-7038
▁Ɓaawo	-7039
▁ɓalli	-7040
antaake	-7041
avaient	-7042
aynoɗon	-7043
origine	-7044
▁Jaŋtol	-7045
▁Lorsqu	-7046
▁Maande	-7047
▁blasph	-7048
▁diable	-7049
▁fermer	-7050
▁filles	-7051
▁habits	-7052
▁loowde	-7053
▁naafiq	-7054
▁njeeɗi	-7055
▁parent	-7056
▁pleine	-7057
▁portée	-7058
▁sachez	-7059
▁second	-7060
▁simple	-7061
▁traité	-7062
▁venait	-7063
▁wonndi	-7064
▁worker	-7065
▁yeddii	-7066
utiliser	-7067
édiction	-7068
▁Dernier	-7069
▁Données	-7070
▁Heureux	-7071
▁Loowgol	-7072
▁Request	-7073
▁cherche	-7074
▁crurent	-7075
▁cuɗaari	-7076
▁dolokke	-7077
▁doosgal	-7078
▁introuv	-7079
▁méthode	-7080
▁naamnii	-7081
▁seŋorde	-7082
▁voulait	-7083
▁yahugol	-7084
▁ɓataake	-7085
shortName	-7086
▁Dewindol	-7087
▁Kaɓirgol	-7088
▁bolondaa	-7089
▁hormorde	-7090
▁parabole	-7091
▁publique	-7092
▁supprimé	-7093
▁teskorde	-7094
▁woodaani	-7095
▁yenaande	-7096
▁yiytaaka	-7097
▁Confirmer	-7098
▁Mooftirɗe	-7099
▁Recherche	-7100
▁Yamiroore	-7101
▁demandent	-7102
▁signature	-7103
▁utilisant	-7104
▁Redémarrer	-7105
▁taalibaajo	-7106
▁wallitooɓe	-7107
Fariisiyaaɓe	-7108
intelligence	-7109
▁gestionnaire	-7110
▁synchronisation	-7111
?›	-7112
Tu	-7113
Yo	-7114
ha	-7115
né	-7116
"/>	-7117
App	-7118
bit	-7119
cra	-7120
dth	-7121
ewu	-7122
gon	-7123
lev	-7124
vol	-7125
▁Fr	-7126
▁bâ	-7127
0020	-7128
Pour	-7129
arge	-7130
auth	-7131
dani	-7132
dats	-7133
dere	-7134
eewu	-7135
ettu	-7136
fiés	-7137
kkii	-7138
nuɗo	-7139
ruɓe	-7140
tuɗi	-7141
ungu	-7142
▁Cra	-7143
▁Dow	-7144
▁Kab	-7145
▁Lot	-7146
▁Mag	-7147
▁diw	-7148
▁eau	-7149
▁exc	-7150
▁fon	-7151
▁kaw	-7152
▁lep	-7153
▁pur	-7154
aabii	-7155
aaree	-7156
aawru	-7157
annda	-7158
diiɓe	-7159
ellal	-7160
ename	-7161
gorit	-7162
venir	-7163
ɗagol	-7164
▁Ball	-7165
▁Disc	-7166
▁Gila	-7167
▁Lowe	-7168
▁Ndaa	-7169
▁Okki	-7170
▁Suuɗ	-7171
▁ardi	-7172
▁banc	-7173
▁cuɓe	-7174
▁date	-7175
▁dobo	-7176
▁fure	-7177
▁gaño	-7178
▁hiiɗ	-7179
▁jicc	-7180
▁jill	-7181
▁jooɗ	-7182
▁myst	-7183
▁nuli	-7184
▁padd	-7185
▁sync	-7186
▁tumb	-7187
▁yeɗi	-7188
▁ɗakk	-7189
associ	-7190
ddugol	-7191
erreur	-7192
ftirde	-7193
glises	-7194
itoowo	-7195
naange	-7196
outent	-7197
search	-7198
▁aurez	-7199
▁dewal	-7200
▁début	-7201
▁farde	-7202
▁halki	-7203
▁holla	-7204
▁jooɗo	-7205
▁kafid	-7206
▁laaɓi	-7207
▁lamnd	-7208
▁lamɓe	-7209
▁mayru	-7210
▁nannd	-7211
▁ngalu	-7212
▁persu	-7213
▁pluie	-7214
▁réper	-7215
▁sosde	-7216
▁suɓre	-7217
▁titre	-7218
▁tuubu	-7219
▁width	-7220
interro	-7221
totaako	-7222
urément	-7223
ènement	-7224
▁Ballal	-7225
▁Gloire	-7226
▁aafgol	-7227
▁attend	-7228
▁collec	-7229
▁consid	-7230
▁daaƴii	-7231
▁debout	-7232
▁dessus	-7233
▁humain	-7234
▁jakkaa	-7235
▁muuɗum	-7236
▁petite	-7237
▁répand	-7238
▁sauvés	-7239
▁silsil	-7240
▁target	-7241
▁townit	-7242
▁verrez	-7243
▁voudra	-7244
▁voyage	-7245
▁weendu	-7246
▁woorii	-7247
gootooɓe	-7248
▁Aujourd	-7249
▁Enfants	-7250
▁Jippini	-7251
▁Masquer	-7252
▁Version	-7253
▁accordé	-7254
▁anglais	-7255
▁aveugle	-7256
▁changer	-7257
▁compati	-7258
▁corromp	-7259
▁endroit	-7260
▁grandes	-7261
▁jogaade	-7262
▁junuubi	-7263
▁membres	-7264
▁respect	-7265
▁ummutal	-7266
▁Églises	-7267
▁Baylital	-7268
▁agréable	-7269
▁allèrent	-7270
▁fuɗɗaade	-7271
▁mangural	-7272
▁services	-7273
▁tiiɗunde	-7274
▁Ñiiɓirde	-7275
▁ñiiɓirɗe	-7276
▁Découvrez	-7277
▁contacter	-7278
▁démarrage	-7279
▁désormais	-7280
▁rencontré	-7281
▁yamiraaka	-7282
▁Hinnorante	-7283
▁Winndannde	-7284
▁convenable	-7285
▁focciingol	-7286
▁neemoraaɗi	-7287
▁ɓannganndu	-7288
▁demeureront	-7289
▁introuvable	-7290
▁jokkondiral	-7291
▁certification	-7292
0}	-7293
US	-7294
!".	-7295
cis	-7296
cul	-7297
emb	-7298
fil	-7299
ote	-7300
uug	-7301
▁om	-7302
▁vê	-7303
▁ƴi	-7304
▁“%	-7305
answ	-7306
itir	-7307
menu	-7308
ogol	-7309
orɗi	-7310
otes	-7311
seau	-7312
tool	-7313
umɓe	-7314
wiis	-7315
èche	-7316
érée	-7317
ɓind	-7318
▁Far	-7319
▁Log	-7320
▁Mus	-7321
▁blâ	-7322
▁fou	-7323
▁gri	-7324
▁ree	-7325
▁rég	-7326
▁{0}	-7327
diiji	-7328
envoi	-7329
eture	-7330
gneau	-7331
gypte	-7332
igner	-7333
kaaɓe	-7334
niiɓe	-7335
îtres	-7336
▁Arsi	-7337
▁Fais	-7338
▁Grec	-7339
▁Naas	-7340
▁bann	-7341
▁gann	-7342
▁haay	-7343
▁heɓa	-7344
▁heɗo	-7345
▁huuɓ	-7346
▁incl	-7347
▁jamm	-7348
▁kesi	-7349
▁lune	-7350
▁nayo	-7351
▁ojoo	-7352
▁peeñ	-7353
▁pire	-7354
▁rois	-7355
▁saak	-7356
▁sens	-7357
▁wara	-7358
▁woot	-7359
▁yacc	-7360
▁yurm	-7361
▁ƴant	-7362
&#037;	-7363
amètre	-7364
anoɗon	-7365
illage	-7366
ussent	-7367
▁Allez	-7368
▁Hoore	-7369
▁Kaari	-7370
▁Yiytu	-7371
▁accus	-7372
▁allié	-7373
▁ballo	-7374
▁court	-7375
▁croix	-7376
▁divis	-7377
▁fewnd	-7378
▁haaju	-7379
▁hebul	-7380
▁jaasi	-7381
▁maaku	-7382
▁mangé	-7383
▁pense	-7384
▁popul	-7385
▁rutte	-7386
▁règne	-7387
▁sokli	-7388
▁temre	-7389
▁viens	-7390
▁vigne	-7391
▁waɗir	-7392
▁wonir	-7393
ankaaku	-7394
ankooɓe	-7395
answere	-7396
▁Parole	-7397
▁Préfér	-7398
▁autant	-7399
▁balise	-7400
▁caméra	-7401
▁choisi	-7402
▁dewind	-7403
▁divers	-7404
▁heftin	-7405
▁mangez	-7406
▁ngoodi	-7407
▁ontuma	-7408
▁projet	-7409
▁repous	-7410
▁suivez	-7411
▁torike	-7412
▁touche	-7413
▁tribun	-7414
sitename	-7415
▁Heertin	-7416
▁Install	-7417
▁Naamnal	-7418
▁Yudaasi	-7419
▁attente	-7420
▁binndol	-7421
▁coulent	-7422
▁miracle	-7423
▁obtenir	-7424
▁pouvons	-7425
▁ramenés	-7426
▁reconnu	-7427
▁sachant	-7428
▁visités	-7429
▁yedduɗo	-7430
▁étoiles	-7431
▁évident	-7432
▁ɓurngol	-7433
container	-7434
espérance	-7435
ouverture	-7436
▁Barnabas	-7437
▁Signaler	-7438
▁Vérifiez	-7439
▁arrivera	-7440
▁complète	-7441
▁dambugal	-7442
▁distribu	-7443
▁himmeeji	-7444
▁hitaande	-7445
▁juldeere	-7446
▁laatinoo	-7447
▁prennent	-7448
▁prescrit	-7449
▁punition	-7450
▁traitent	-7451
▁yiltitii	-7452
▁yiylorde	-7453
Omniscient	-7454
sahaabaaɓe	-7455
▁Engeleere	-7456
▁Restaurer	-7457
▁améliorer	-7458
▁secoureur	-7459
▁conscience	-7460
▁nécessaires	-7461
▁télécharger	-7462
accessibilité	-7463
▁enregistrement	-7464
.)	-7465
12	-7466
50	-7467
So	-7468
Tr	-7469
▁x	-7470
API	-7471
ané	-7472
aïe	-7473
fri	-7474
hun	-7475
img	-7476
occ	-7477
éné	-7478
▁#3	-7479
▁24	-7480
▁Ju	-7481
aawu	-7482
arie	-7483
ddee	-7484
ddii	-7485
docs	-7486
ebbo	-7487
erve	-7488
ewje	-7489
ider	-7490
line	-7491
oyet	-7492
rata	-7493
trez	-7494
▁Naf	-7495
▁cos	-7496
▁fas	-7497
▁foo	-7498
▁sil	-7499
▁tué	-7500
▁wut	-7501
▁yel	-7502
▁ɲaw	-7503
avais	-7504
dduɓe	-7505
dente	-7506
immbi	-7507
irata	-7508
iritu	-7509
ltère	-7510
ɗiiji	-7511
▁Avec	-7512
▁Ittu	-7513
▁Konu	-7514
▁Mont	-7515
▁Rapp	-7516
▁Tapp	-7517
▁Timo	-7518
▁Togg	-7519
▁Type	-7520
▁baas	-7521
▁clés	-7522
▁déro	-7523
▁entr	-7524
▁goow	-7525
▁guid	-7526
▁heer	-7527
▁janf	-7528
▁jeta	-7529
▁jeté	-7530
▁joɗɗ	-7531
▁prêt	-7532
▁révo	-7533
▁salu	-7534
▁send	-7535
▁terr	-7536
▁Îles	-7537
▁ɓeen	-7538
Agneau	-7539
aneede	-7540
anooma	-7541
auront	-7542
ortant	-7543
pocket	-7544
tindir	-7545
zareth	-7546
▁Banng	-7547
▁Baɗte	-7548
▁Sahaa	-7549
▁Soyez	-7550
▁andii	-7551
▁annde	-7552
▁artir	-7553
▁dokke	-7554
▁dépos	-7555
▁hendu	-7556
▁honde	-7557
▁jinaa	-7558
▁jonni	-7559
▁koode	-7560
▁santé	-7561
▁sauvé	-7562
▁tawaa	-7563
▁égaux	-7564
aaruuna	-7565
accéder	-7566
envoyer	-7567
organis	-7568
tteende	-7569
▁Ontuma	-7570
▁Waawaa	-7571
▁bouton	-7572
▁ceŋtol	-7573
▁changé	-7574
▁commen	-7575
▁jaaɓɗe	-7576
▁justes	-7577
▁mesaas	-7578
▁nanngi	-7579
▁recouv	-7580
▁réconc	-7581
▁souill	-7582
▁waɗiri	-7583
▁weltin	-7584
▁étrang	-7585
ondirgol	-7586
tiennent	-7587
username	-7588
▁Ceŋagol	-7589
▁Filiipu	-7590
▁Timotee	-7591
▁Toggilo	-7592
▁assigné	-7593
▁comptes	-7594
▁jokkuɓe	-7595
▁keertin	-7596
▁malades	-7597
▁section	-7598
▁spiritu	-7599
▁windori	-7600
▁yamirde	-7601
▁yontere	-7602
▁ɲalaaɗe	-7603
▁autorisé	-7604
▁contextu	-7605
▁huutoroo	-7606
▁jiiloowo	-7607
▁juulirɗe	-7608
▁miskinɓe	-7609
▁particip	-7610
▁teemeɗɗe	-7611
▁yeesoojo	-7612
▁évidente	-7613
appartient	-7614
▁Certaines	-7615
▁certaines	-7616
▁humondiri	-7617
▁huutortoo	-7618
▁référence	-7619
▁sanamuuji	-7620
▁Yurmeteeɗo	-7621
▁clairement	-7622
▁désactivée	-7623
▁joomiraaɓe	-7624
▁moƴƴinooɓe	-7625
▁njaajeendi	-7626
▁répertoire	-7627
▁entièrement	-7628
<%	-7629
Fi	-7630
GL	-7631
LS	-7632
}.	-7633
▁–	-7634
ade	-7635
aix	-7636
box	-7637
gen	-7638
hen	-7639
orm	-7640
pli	-7641
pré	-7642
ulm	-7643
uuɓ	-7644
zar	-7645
▁".	-7646
▁QR	-7647
▁ms	-7648
▁ur	-7649
▁ɗu	-7650
Kono	-7651
Onon	-7652
anji	-7653
atri	-7654
aura	-7655
aver	-7656
ayre	-7657
aɗaa	-7658
crip	-7659
dans	-7660
duɗe	-7661
etch	-7662
eten	-7663
euls	-7664
irai	-7665
mail	-7666
okku	-7667
oliv	-7668
pent	-7669
reté	-7670
tets	-7671
titu	-7672
ulay	-7673
urée	-7674
uwal	-7675
état	-7676
étés	-7677
ônes	-7678
▁Ara	-7679
▁Bug	-7680
▁Mam	-7681
▁Pii	-7682
▁Uni	-7683
▁Vis	-7684
▁aad	-7685
▁aal	-7686
▁ami	-7687
▁fig	-7688
▁hen	-7689
▁jii	-7690
▁riz	-7691
aller	-7692
arbre	-7693
irɗaa	-7694
kiiɗe	-7695
kulal	-7696
llait	-7697
maana	-7698
onɗin	-7699
table	-7700
toowo	-7701
▁Aray	-7702
▁Feew	-7703
▁Wide	-7704
▁ardu	-7705
▁avis	-7706
▁ayez	-7707
▁hebb	-7708
▁mbaw	-7709
▁sein	-7710
▁tere	-7711
▁toon	-7712
▁veul	-7713
▁élus	-7714
▁ɗaan	-7715
aangol	-7716
akeeji	-7717
anooki	-7718
iendra	-7719
issait	-7720
ondent	-7721
voyant	-7722
▁Aller	-7723
▁Anndu	-7724
▁Charg	-7725
▁Jaŋto	-7726
▁Judas	-7727
▁Telle	-7728
▁audio	-7729
▁dosol	-7730
▁innit	-7731
▁lette	-7732
▁leyɗe	-7733
▁lutti	-7734
▁magie	-7735
▁maxim	-7736
▁parla	-7737
▁pause	-7738
▁protè	-7739
▁scand	-7740
▁sokol	-7741
▁terri	-7742
▁tooñe	-7743
▁vents	-7744
▁vivre	-7745
▁voile	-7746
▁échec	-7747
▁ɓannd	-7748
oyteeɓe	-7749
éritage	-7750
▁Doggol	-7751
▁Google	-7752
▁Jiytol	-7753
▁Quelle	-7754
▁Saints	-7755
▁alliés	-7756
▁bouill	-7757
▁disput	-7758
▁duttin	-7759
▁jeunes	-7760
▁longue	-7761
▁nattal	-7762
▁ndannd	-7763
▁observ	-7764
▁ouvrir	-7765
▁partis	-7766
▁pourra	-7767
▁tanƴin	-7768
▁verras	-7769
▁ɓurnde	-7770
▁Appuyez	-7771
▁Jardins	-7772
▁appelée	-7773
▁arrière	-7774
▁bloquer	-7775
▁courant	-7776
▁gratuit	-7777
▁respons	-7778
▁revenir	-7779
▁rewugol	-7780
▁veulent	-7781
▁visages	-7782
▁wooturu	-7783
exception	-7784
▁Baabaare	-7785
▁Craignez	-7786
▁Hurmitin	-7787
▁annoncer	-7788
▁cherchez	-7789
▁crucifié	-7790
▁heddiiɓe	-7791
▁jaɓɓorgo	-7792
▁jinnawii	-7793
▁njaltudi	-7794
▁notables	-7795
▁nouveaux	-7796
▁passions	-7797
▁poursuiv	-7798
▁sanctifi	-7799
▁stockage	-7800
▁wonnooɓe	-7801
tification	-7802
▁Annabaajo	-7803
▁Bienvenue	-7804
▁compagnon	-7805
▁croyaient	-7806
▁explicite	-7807
▁fanndanoo	-7808
▁gollaynoo	-7809
▁gomɗintaa	-7810
▁tentative	-7811
▁trouveras	-7812
identifiant	-7813
▁changement	-7814
▁enregistre	-7815
▁extensions	-7816
▁génération	-7817
▁kaawakeeji	-7818
▁njuuteendi	-7819
▁révélation	-7820
▁seeditoore	-7821
▁semblables	-7822
▁synagogues	-7823
▁tampereeji	-7824
▁Préférences	-7825
▁générations	-7826
▁téléchargements	-7827
5$	-7828
CT	-7829
Ex	-7830
oƴ	-7831
ɓa	-7832
▁)	-7833
="_	-7834
=<%	-7835
Mal	-7836
Par	-7837
Qui	-7838
dda	-7839
esi	-7840
isi	-7841
orc	-7842
oye	-7843
pre	-7844
tum	-7845
ydi	-7846
équ	-7847
▁MD	-7848
▁em	-7849
▁gé	-7850
.%3$	-7851
With	-7852
ador	-7853
agne	-7854
aimé	-7855
anɓe	-7856
aveu	-7857
awal	-7858
illo	-7859
kers	-7860
oowe	-7861
titi	-7862
toro	-7863
welo	-7864
èque	-7865
▁Ass	-7866
▁Cal	-7867
▁Can	-7868
▁Daw	-7869
▁Esp	-7870
▁Iil	-7871
▁Sou	-7872
▁Tig	-7873
▁buv	-7874
▁cog	-7875
▁cél	-7876
▁gro	-7877
▁hoɗ	-7878
▁ill	-7879
▁lié	-7880
▁lom	-7881
▁noy	-7882
▁saw	-7883
▁tur	-7884
▁vas	-7885
▁âge	-7886
▁ñam	-7887
Shift	-7888
dient	-7889
doore	-7890
entes	-7891
esome	-7892
iilay	-7893
irons	-7894
ister	-7895
itiri	-7896
nooɓe	-7897
ortaa	-7898
ouper	-7899
pital	-7900
reuve	-7901
taaɗe	-7902
tiens	-7903
tiles	-7904
▁<%4$	-7905
▁Alif	-7906
▁Appr	-7907
▁Date	-7908
▁Fonc	-7909
▁JSON	-7910
▁Keer	-7911
▁Leur	-7912
▁Mase	-7913
▁Sauv	-7914
▁Yont	-7915
▁baaf	-7916
▁bois	-7917
▁inɗe	-7918
▁kool	-7919
▁lamp	-7920
▁larg	-7921
▁magi	-7922
▁mbii	-7923
▁nann	-7924
▁pare	-7925
▁poti	-7926
▁pron	-7927
▁relâ	-7928
▁tech	-7929
▁town	-7930
▁trah	-7931
▁tuer	-7932
▁vari	-7933
▁winn	-7934
▁yeey	-7935
▁ñawn	-7936
▁ɗimm	-7937
▁ɗoft	-7938
aawulu	-7939
aissez	-7940
alisée	-7941
anaama	-7942
anooɗo	-7943
eccere	-7944
inaali	-7945
inndin	-7946
iraama	-7947
itataa	-7948
itogol	-7949
phique	-7950
érable	-7951
▁Avant	-7952
▁Carwe	-7953
▁Fulɓe	-7954
▁Hinaa	-7955
▁Media	-7956
▁Suudu	-7957
▁Woɓɓe	-7958
▁arata	-7959
▁banke	-7960
▁crois	-7961
▁dowro	-7962
▁handi	-7963
▁hollu	-7964
▁ingra	-7965
▁jikku	-7966
▁kañum	-7967
▁lende	-7968
▁momte	-7969
▁pular	-7970
▁repas	-7971
▁repro	-7972
▁sikka	-7973
▁tient	-7974
▁tomba	-7975
▁wennj	-7976
▁yaari	-7977
▁yiila	-7978
account	-7979
autoris	-7980
ciation	-7981
eteende	-7982
itation	-7983
ryption	-7984
ussions	-7985
▁Balise	-7986
▁Teelto	-7987
▁afflic	-7988
▁allons	-7989
▁arsiki	-7990
▁débogu	-7991
▁entier	-7992
▁feƴƴii	-7993
▁fuɗɗii	-7994
▁racont	-7995
▁rendez	-7996
▁saisit	-7997
▁secret	-7998
▁senngo	-7999
▁suuɗii	-8000
▁trésor	-8001
▁wonɗaa	-8002
▁yiltit	-8003
encodage	-8004
ensemble	-8005
▁Awesome	-8006
▁Contenu	-8007
▁Filtrer	-8008
▁Kameraa	-8009
▁Yuusufa	-8010
▁ajouter	-8011
▁andaali	-8012
▁annoncé	-8013
▁baptême	-8014
▁convers	-8015
▁esprits	-8016
▁feccere	-8017
▁hayruɓe	-8018
▁loowgol	-8019
▁mystère	-8020
▁oiseaux	-8021
▁options	-8022
▁ouverts	-8023
▁puisque	-8024
▁remplis	-8025
▁rewooɓe	-8026
▁soldats	-8027
▁tedduɗo	-8028
▁yiitere	-8029
▁ɗoftike	-8030
▁Connaiss	-8031
▁Fannuuji	-8032
▁courrier	-8033
▁détermin	-8034
▁hurminde	-8035
▁keeriiɗe	-8036
▁kiikiiɗe	-8037
▁kurkaaɗi	-8038
▁persécut	-8039
▁sauvâmes	-8040
▁utilisée	-8041
▁versions	-8042
▁vêtement	-8043
▁wondunoo	-8044
▁Annabiijo	-8045
▁Naasirata	-8046
▁Signature	-8047
▁direction	-8048
▁invoquent	-8049
▁lendemain	-8050
▁processus	-8051
▁répondant	-8052
▁satteende	-8053
▁égarement	-8054
▁Navigateur	-8055
▁kuutorogol	-8056
▁protecteur	-8057
▁trouvèrent	-8058
▁Connaisseur	-8059
▁formulaires	-8060
▁Vérification	-8061
▁premièrement	-8062
▁modifications	-8063
TC	-8064
pi	-8065
'/>	-8066
Won	-8067
dem	-8068
eng	-8069
iɗi	-8070
kiy	-8071
kka	-8072
mun	-8073
nee	-8074
oƴƴ	-8075
urr	-8076
▁64	-8077
▁CA	-8078
▁Gr	-8079
▁el	-8080
Wata	-8081
anim	-8082
back	-8083
dain	-8084
full	-8085
ilde	-8086
inée	-8087
isez	-8088
itaa	-8089
jinn	-8090
owal	-8091
poni	-8092
rier	-8093
rées	-8094
ɗike	-8095
▁100	-8096
▁Cok	-8097
▁Dir	-8098
▁Haɗ	-8099
▁Loc	-8100
▁Mad	-8101
▁Tur	-8102
▁caa	-8103
▁eût	-8104
▁fij	-8105
▁opp	-8106
▁pil	-8107
▁rob	-8108
▁roy	-8109
▁set	-8110
▁sot	-8111
▁ñif	-8112
▁œil	-8113
▁Ɗow	-8114
ammes	-8115
audio	-8116
enier	-8117
enndu	-8118
gment	-8119
inndo	-8120
intes	-8121
itori	-8122
onnez	-8123
tinol	-8124
tique	-8125
toore	-8126
ɗooli	-8127
▁Fest	-8128
▁Fuɗɗ	-8129
▁Mode	-8130
▁Wuur	-8131
▁ache	-8132
▁dill	-8133
▁edii	-8134
▁exer	-8135
▁four	-8136
▁hiMo	-8137
▁hipp	-8138
▁impl	-8139
▁irré	-8140
▁iwɗe	-8141
▁jomb	-8142
▁mand	-8143
▁mena	-8144
▁mill	-8145
▁ndew	-8146
▁pier	-8147
▁rewa	-8148
▁sibu	-8149
▁suno	-8150
▁tata	-8151
▁tels	-8152
▁test	-8153
▁tugg	-8154
▁vont	-8155
▁welo	-8156
▁Ñaaw	-8157
▁Ɓenn	-8158
System	-8159
accord	-8160
aruuji	-8161
atoire	-8162
diteur	-8163
entrer	-8164
existe	-8165
ontoon	-8166
ortait	-8167
ouange	-8168
primer	-8169
tilité	-8170
tiques	-8171
▁Bayle	-8172
▁Haray	-8173
▁Hiɗon	-8174
▁Isaac	-8175
▁Sulay	-8176
▁Wonii	-8177
▁aient	-8178
▁arbre	-8179
▁bonté	-8180
▁caché	-8181
▁desse	-8182
▁divul	-8183
▁heɓir	-8184
▁jeeta	-8185
▁nodda	-8186
▁panni	-8187
▁pewje	-8188
▁privé	-8189
▁ronki	-8190
▁sella	-8191
▁tribu	-8192
▁wowla	-8193
▁Étant	-8194
▁établ	-8195
antages	-8196
ettoore	-8197
iraynoo	-8198
llement	-8199
ondirde	-8200
ributes	-8201
▁Aafgol	-8202
▁Chaque	-8203
▁Dartin	-8204
▁Esprit	-8205
▁Hérode	-8206
▁Naamne	-8207
▁Vérité	-8208
▁auquel	-8209
▁bimmbi	-8210
▁chaîne	-8211
▁consom	-8212
▁distin	-8213
▁exclus	-8214
▁faawru	-8215
▁faible	-8216
▁firlit	-8217
▁kurmin	-8218
▁makkun	-8219
▁mbaydi	-8220
▁renfor	-8221
▁saabii	-8222
▁saison	-8223
▁sewnde	-8224
▁tomber	-8225
▁waasde	-8226
▁yamira	-8227
▁Annuler	-8228
▁Blocage	-8229
▁Changer	-8230
▁Demande	-8231
▁Définir	-8232
▁Iiliiya	-8233
▁Limoore	-8234
▁Modules	-8235
▁Senayee	-8236
▁addanii	-8237
▁annduɗo	-8238
▁annulée	-8239
▁artirde	-8240
▁aurions	-8241
▁avertis	-8242
▁baptisé	-8243
▁charger	-8244
▁dakamme	-8245
▁faandii	-8246
▁jeertin	-8247
▁licence	-8248
▁malaaɓe	-8249
▁masiŋon	-8250
▁minutes	-8251
▁modifié	-8252
▁njiytaa	-8253
▁pierres	-8254
▁semence	-8255
▁verront	-8256
▁yewtere	-8257
▁Nazareth	-8258
▁Seytaane	-8259
▁Toujours	-8260
▁Yontaaɓe	-8261
▁activité	-8262
▁commencé	-8263
▁désordre	-8264
▁invoquez	-8265
▁pellital	-8266
▁répondre	-8267
▁terminer	-8268
▁terrible	-8269
▁tijjaaka	-8270
▁vaisseau	-8271
▁Banngagol	-8272
▁assujetti	-8273
▁coktirgal	-8274
▁commencer	-8275
▁extension	-8276
▁moƴƴannde	-8277
▁Sulaymaana	-8278
▁compagnons	-8279
▁duumotooɓe	-8280
▁lesquelles	-8281
▁déclaration	-8282
▁utilisation	-8283
▁rewindotooɓe	-8284
")	-8285
.0	-8286
1,	-8287
23	-8288
Jo	-8289
PS	-8290
sa	-8291
}"	-8292
ûd	-8293
▁9	-8294
▁Ɲ	-8295
>).	-8296
Spx	-8297
ali	-8298
aly	-8299
aɓo	-8300
bbe	-8301
fee	-8302
phe	-8303
vas	-8304
ɓii	-8305
▁Eh	-8306
▁VK	-8307
adaa	-8308
awma	-8309
iino	-8310
ince	-8311
ject	-8312
oɗaa	-8313
udit	-8314
▁DNS	-8315
▁Daɗ	-8316
▁Heb	-8317
▁Imm	-8318
▁Keɓ	-8319
▁TLS	-8320
▁Zab	-8321
▁cuɗ	-8322
▁hii	-8323
▁hiw	-8324
▁sey	-8325
▁sug	-8326
▁wun	-8327
▁édi	-8328
▁ɓal	-8329
▁ɓam	-8330
ament	-8331
anton	-8332
asses	-8333
diije	-8334
doine	-8335
eewto	-8336
faits	-8337
ilité	-8338
isant	-8339
niiɗo	-8340
tiiɓe	-8341
tinii	-8342
▁Hatt	-8343
▁Lire	-8344
▁Mawn	-8345
▁Pass	-8346
▁Yiil	-8347
▁béni	-8348
▁fawi	-8349
▁fodi	-8350
▁good	-8351
▁haɗa	-8352
▁horm	-8353
▁leva	-8354
▁luln	-8355
▁mogg	-8356
▁oɗon	-8357
▁revê	-8358
▁suɓo	-8359
▁teme	-8360
▁trem	-8361
▁vede	-8362
▁wopp	-8363
▁yara	-8364
▁yarn	-8365
▁Ñawn	-8366
▁‘%2$	-8367
Origin	-8368
amiina	-8369
ession	-8370
gument	-8371
inaaɗo	-8372
inanii	-8373
inooɗo	-8374
intini	-8375
iteede	-8376
itiiɗi	-8377
resser	-8378
tannde	-8379
écuter	-8380
étails	-8381
▁Faire	-8382
▁Flash	-8383
▁Recev	-8384
▁Tammb	-8385
▁WebGL	-8386
▁Yaltu	-8387
▁Yuɓɓo	-8388
▁acces	-8389
▁allez	-8390
▁assez	-8391
▁baŋŋe	-8392
▁bunɗo	-8393
▁butoŋ	-8394
▁cegen	-8395
▁cités	-8396
▁enver	-8397
▁geɗal	-8398
▁heeri	-8399
▁jeyɓe	-8400
▁kaafa	-8401
▁livré	-8402
▁maaya	-8403
▁naata	-8404
▁neldu	-8405
▁okkor	-8406
▁prier	-8407
▁reedu	-8408
▁riche	-8409
▁sennd	-8410
▁sikki	-8411
▁suɓii	-8412
▁tolno	-8413
▁weeyo	-8414
▁yahii	-8415
Request	-8416
context	-8417
feraaku	-8418
importe	-8419
lecteur	-8420
lection	-8421
miettes	-8422
mission	-8423
raiment	-8424
▁Rappel	-8425
▁Saluez	-8426
▁arrive	-8427
▁bloque	-8428
▁ciigol	-8429
▁corrig	-8430
▁dirige	-8431
▁droits	-8432
▁images	-8433
▁jeegoo	-8434
▁moyens	-8435
▁presse	-8436
▁précip	-8437
▁ñalngu	-8438
ngurndan	-8439
▁Accéder	-8440
▁Anciens	-8441
▁Heroodu	-8442
▁Masedon	-8443
▁Options	-8444
▁Princip	-8445
▁Saawulu	-8446
▁Sauveur	-8447
▁arriver	-8448
▁cheveux	-8449
▁devriez	-8450
▁définit	-8451
▁environ	-8452
▁esclave	-8453
▁fallait	-8454
▁fenooɓe	-8455
▁fotaani	-8456
▁hulooɓe	-8457
▁jaawgol	-8458
▁jiyaaɗo	-8459
▁kaɓirɗe	-8460
▁koɗooli	-8461
▁mawngal	-8462
▁montrer	-8463
▁parcour	-8464
▁quitter	-8465
▁seconde	-8466
▁sources	-8467
▁yamirii	-8468
▁yewtude	-8469
▁ɓatakol	-8470
▁ɲalorma	-8471
▁Créateur	-8472
▁Sarworde	-8473
▁aawtaade	-8474
▁auraient	-8475
▁couleurs	-8476
▁cuuriiɗe	-8477
▁faaleeji	-8478
▁faamaali	-8479
▁feɲɲinan	-8480
▁manquant	-8481
▁prodiges	-8482
▁victoire	-8483
▁ɓatakuru	-8484
Attributes	-8485
▁Toutefois	-8486
▁accomplie	-8487
▁attention	-8488
▁condition	-8489
▁directive	-8490
▁espérance	-8491
▁jowtaango	-8492
▁propriété	-8493
▁protocole	-8494
▁récemment	-8495
▁résultats	-8496
▁tammbaaka	-8497
▁tentation	-8498
▁ƴeewtaaka	-8499
▁ɓatakuuje	-8500
emplacement	-8501
▁Kesɗitinal	-8502
▁Toppitorde	-8503
▁engagement	-8504
▁keeferaaku	-8505
▁redémarrer	-8506
iilayankeeɓe	-8507
ministrateur	-8508
▁binnditagol	-8509
▁rétribution	-8510
▁contribution	-8511
▁retournèrent	-8512
▁Téléchargement	-8513
;:	-8514
Ce	-8515
MS	-8516
ks	-8517
yr	-8518
▁î	-8519
/>.	-8520
Hay	-8521
anh	-8522
aŋk	-8523
bii	-8524
cer	-8525
dul	-8526
igu	-8527
obs	-8528
oom	-8529
ult	-8530
œuv	-8531
Ɓey	-8532
▁Be	-8533
▁Co	-8534
▁GC	-8535
▁Ku	-8536
▁ru	-8537
▁ça	-8538
Gomɗ	-8539
alle	-8540
ames	-8541
atah	-8542
atif	-8543
elal	-8544
ingt	-8545
inke	-8546
inon	-8547
lige	-8548
oggi	-8549
oodi	-8550
pare	-8551
plan	-8552
rite	-8553
tani	-8554
tino	-8555
uura	-8556
▁Eey	-8557
▁Jog	-8558
▁Kes	-8559
▁Mos	-8560
▁Nji	-8561
▁Rem	-8562
▁Rép	-8563
▁ané	-8564
▁bag	-8565
▁cli	-8566
▁dañ	-8567
▁déb	-8568
▁haï	-8569
▁hey	-8570
▁ila	-8571
▁lap	-8572
▁neu	-8573
▁sce	-8574
▁sog	-8575
▁sév	-8576
▁taf	-8577
▁tut	-8578
▁wum	-8579
▁ɓii	-8580
Allow	-8581
afari	-8582
angel	-8583
asion	-8584
chait	-8585
cieux	-8586
dukun	-8587
ecter	-8588
innoo	-8589
irton	-8590
makko	-8591
ondes	-8592
othée	-8593
oytoo	-8594
taaɗo	-8595
toɗaa	-8596
tream	-8597
weere	-8598
égard	-8599
ɗinii	-8600
▁(%2$	-8601
▁Adam	-8602
▁Comb	-8603
▁Dépl	-8604
▁Gaaw	-8605
▁Goow	-8606
▁Haay	-8607
▁MIME	-8608
▁Macé	-8609
▁Mons	-8610
▁Quoi	-8611
▁Saul	-8612
▁amis	-8613
▁aver	-8614
▁brûl	-8615
▁dank	-8616
▁darn	-8617
▁gaɗa	-8618
▁itti	-8619
▁jalb	-8620
▁jelu	-8621
▁mban	-8622
▁médi	-8623
▁ngar	-8624
▁péag	-8625
▁rokk	-8626
▁task	-8627
▁tato	-8628
▁visu	-8629
▁yahu	-8630
▁Ñaam	-8631
accour	-8632
cepter	-8633
erewol	-8634
iranoo	-8635
itaaka	-8636
itaare	-8637
kaalde	-8638
mingol	-8639
ominie	-8640
ookies	-8641
sibles	-8642
▁Carwo	-8643
▁Clair	-8644
▁Debbo	-8645
▁Forum	-8646
▁Grand	-8647
▁Janto	-8648
▁Jokku	-8649
▁Maint	-8650
▁Point	-8651
▁Tappu	-8652
▁accit	-8653
▁addan	-8654
▁andee	-8655
▁anniy	-8656
▁blanc	-8657
▁bonɗo	-8658
▁boyet	-8659
▁bumɓe	-8660
▁carwe	-8661
▁concl	-8662
▁djinn	-8663
▁fuite	-8664
▁furee	-8665
▁haɗii	-8666
▁hooti	-8667
▁jarra	-8668
▁karte	-8669
▁lieux	-8670
▁morce	-8671
▁ndaaƴ	-8672
▁ndeer	-8673
▁njokk	-8674
▁pacte	-8675
▁prédi	-8676
▁prête	-8677
▁simil	-8678
▁suuri	-8679
▁teewu	-8680
▁vieux	-8681
▁wanng	-8682
▁yaasi	-8683
▁yalta	-8684
▁yewta	-8685
Control	-8686
chèrent	-8687
ereekiy	-8688
nightly	-8689
ponible	-8690
service	-8691
tection	-8692
èrement	-8693
▁Désolé	-8694
▁Frères	-8695
▁Guinée	-8696
▁Outils	-8697
▁Taalib	-8698
▁Tagere	-8699
▁andude	-8700
▁anndit	-8701
▁années	-8702
▁commet	-8703
▁danndu	-8704
▁devenu	-8705
▁disque	-8706
▁garant	-8707
▁henndu	-8708
▁hériti	-8709
▁idoles	-8710
▁laissé	-8711
▁lancer	-8712
▁maudit	-8713
▁mawndi	-8714
▁naatde	-8715
▁perdre	-8716
▁perman	-8717
▁saisis	-8718
▁sugges	-8719
▁toɗɗii	-8720
▁ventre	-8721
▁villes	-8722
▁wonude	-8723
▁écrire	-8724
entendis	-8725
▁Fichier	-8726
▁Immorde	-8727
▁Njiilaw	-8728
▁Onglets	-8729
▁Pontoon	-8730
▁Quitter	-8731
▁affaire	-8732
▁devient	-8733
▁divulgu	-8734
▁duŋayee	-8735
▁faamude	-8736
▁faisiez	-8737
▁gollata	-8738
▁hollude	-8739
▁instant	-8740
▁keɓagol	-8741
▁laaɓuɗi	-8742
▁laissez	-8743
▁maladie	-8744
▁maîtres	-8745
▁moƴƴini	-8746
▁muuyani	-8747
▁ordonné	-8748
▁persuad	-8749
▁plaisir	-8750
▁portant	-8751
▁pouvait	-8752
▁prisonn	-8753
▁rendent	-8754
▁serment	-8755
▁signalé	-8756
▁tristes	-8757
▁wanaano	-8758
▁wonduɓe	-8759
▁wonunoo	-8760
▁ɗuuɗuɗi	-8761
intérieur	-8762
égarement	-8763
▁Certains	-8764
▁Contribu	-8765
▁Faalkiso	-8766
▁Haaruuna	-8767
▁Importer	-8768
▁Jaɓɓorgo	-8769
▁Personne	-8770
▁Sakkitii	-8771
▁Timothée	-8772
▁alliance	-8773
▁altindir	-8774
▁bonnooɓe	-8775
▁comporte	-8776
▁confirmé	-8777
▁danndude	-8778
▁duttinal	-8779
▁faggitii	-8780
▁galleeji	-8781
▁interrog	-8782
▁jannugol	-8783
▁maayataa	-8784
▁messager	-8785
▁momtugol	-8786
▁njeeɗiɗo	-8787
▁quarante	-8788
▁vérifiée	-8789
▁Autorisez	-8790
▁Macédoine	-8791
▁autrefois	-8792
▁conserver	-8793
▁endurants	-8794
▁fermeture	-8795
▁interromp	-8796
▁jaaɓnirɗe	-8797
▁kuutortoo	-8798
▁paramètre	-8799
▁poitrines	-8800
▁recommand	-8801
▁teemedere	-8802
▁tiitoonde	-8803
enregistrer	-8804
▁assurément	-8805
▁bireediije	-8806
▁identifier	-8807
▁publicités	-8808
▁destination	-8809
▁inscription	-8810
▁particulier	-8811
▁ressuscités	-8812
▁altindiraangal	-8813
;,	-8814
RM	-8815
iŋ	-8816
lu	-8817
âm	-8818
▁7	-8819
/</	-8820
?".	-8821
gay	-8822
iet	-8823
ipe	-8824
mac	-8825
odi	-8826
ppe	-8827
uki	-8828
umé	-8829
ved	-8830
èce	-8831
▁(«	-8832
▁SD	-8833
▁»)	-8834
▁»,	-8835
▁ñi	-8836
Http	-8837
Type	-8838
aces	-8839
actu	-8840
agit	-8841
anci	-8842
diez	-8843
elon	-8844
eter	-8845
ibli	-8846
ieur	-8847
imaa	-8848
inal	-8849
isol	-8850
ndol	-8851
oids	-8852
rash	-8853
royi	-8854
ruit	-8855
size	-8856
tées	-8857
unit	-8858
unnd	-8859
▁Bon	-8860
▁Dos	-8861
▁Jus	-8862
▁Koo	-8863
▁Ngu	-8864
▁Tem	-8865
▁Wah	-8866
▁cas	-8867
▁dum	-8868
▁ess	-8869
▁hur	-8870
▁lew	-8871
▁nih	-8872
▁obt	-8873
▁pir	-8874
▁riv	-8875
▁soy	-8876
▁sup	-8877
▁tim	-8878
▁ɓoy	-8879
▁ɗuy	-8880
State	-8881
Voilà	-8882
anhéd	-8883
autel	-8884
bbere	-8885
chiez	-8886
https	-8887
iiyii	-8888
inage	-8889
injus	-8890
isent	-8891
iteur	-8892
lions	-8893
nolog	-8894
orgol	-8895
ourez	-8896
ourne	-8897
quées	-8898
rirde	-8899
tront	-8900
œuvre	-8901
▁Arma	-8902
▁Haal	-8903
▁Mess	-8904
▁Siif	-8905
▁band	-8906
▁fokk	-8907
▁haaw	-8908
▁konn	-8909
▁mbat	-8910
▁meem	-8911
▁njah	-8912
▁nœud	-8913
▁ouvr	-8914
▁parf	-8915
▁saɗe	-8916
▁soif	-8917
▁surv	-8918
▁susc	-8919
▁tire	-8920
▁tonn	-8921
▁tués	-8922
▁ɓant	-8923
Stream	-8924
anooka	-8925
cratif	-8926
dingol	-8927
gueill	-8928
inrent	-8929
niinde	-8930
quante	-8931
▁Fedde	-8932
▁Fetch	-8933
▁Gooto	-8934
▁Goɗɗe	-8935
▁Jamir	-8936
▁Luutu	-8937
▁addii	-8938
▁batte	-8939
▁dille	-8940
▁douce	-8941
▁fermé	-8942
▁hakke	-8943
▁haton	-8944
▁heege	-8945
▁honor	-8946
▁jogit	-8947
▁juges	-8948
▁mawni	-8949
▁moiss	-8950
▁peeje	-8951
▁plate	-8952
▁pucci	-8953
▁récit	-8954
▁toroo	-8955
▁tummb	-8956
▁Ƴettu	-8957
aabaajo	-8958
illaaji	-8959
monitor	-8960
obtenir	-8961
reative	-8962
tenteur	-8963
▁Salmin	-8964
▁Yawtan	-8965
▁araali	-8966
▁demain	-8967
▁djinns	-8968
▁etagol	-8969
▁format	-8970
▁haanaa	-8971
▁laakun	-8972
▁manque	-8973
▁moƴƴal	-8974
▁moƴƴol	-8975
▁naatii	-8976
▁nature	-8977
▁nunɗal	-8978
▁porter	-8979
▁prends	-8980
▁ralent	-8981
▁rassas	-8982
▁rewude	-8983
▁risque	-8984
▁tintin	-8985
▁vaines	-8986
▁waawde	-8987
▁ɲallal	-8988
Security	-8989
anhédrin	-8990
ocations	-8991
tivement	-8992
▁Commons	-8993
▁Essayez	-8994
▁Fodoore	-8995
▁Nouveau	-8996
▁bloquée	-8997
▁ceŋogol	-8998
▁cliquez	-8999
▁devenir	-9000
▁felliti	-9001
▁fennuɓe	-9002
▁feuille	-9003
▁heewuɗo	-9004
▁kameraa	-9005
▁koneeli	-9006
▁laisser	-9007
▁majjuɓe	-9008
▁proches	-9009
▁ramasse	-9010
▁recharg	-9011
▁rewoton	-9012
▁réfléch	-9013
▁répandu	-9014
▁warugol	-9015
▁yowitii	-9016
▁ɗuuɗuɗo	-9017
Transport	-9018
formément	-9019
injustice	-9020
tifikaaji	-9021
▁Yaynirde	-9022
▁baptisés	-9023
▁conduite	-9024
▁demandes	-9025
▁débogage	-9026
▁glorifié	-9027
▁gollooɓe	-9028
▁hakkille	-9029
▁lucratif	-9030
▁moƴƴugol	-9031
▁naviguer	-9032
▁neemaaji	-9033
▁présenta	-9034
▁savaient	-9035
▁saɗeende	-9036
▁souhaite	-9037
▁survenue	-9038
▁yeesooɓe	-9039
▁ñaawoore	-9040
▁Attention	-9041
▁Consulter	-9042
▁Découvrir	-9043
▁accomplis	-9044
▁apprendre	-9045
▁autorisés	-9046
▁bienfaits	-9047
▁compagnie	-9048
▁configuré	-9049
▁craignent	-9050
▁incorrect	-9051
▁luutondir	-9052
▁nullement	-9053
▁numérique	-9054
▁sélecteur	-9055
▁yottingol	-9056
HttpRequest	-9057
▁Permission	-9058
▁Sartifikaa	-9059
▁Taalibaaɓe	-9060
▁commettent	-9061
▁comportant	-9062
▁gouverneur	-9063
▁jebbiliiɓe	-9064
▁wakkilaare	-9065
▁Clairvoyant	-9066
▁changements	-9067
▁cherchaient	-9068
▁demandèrent	-9069
▁circoncision	-9070
▁consommation	-9071
▁malveillants	-9072
▁temporairement	-9073
56	-9074
ES	-9075
Ee	-9076
Go	-9077
ca	-9078
rl	-9079
vu	-9080
xt	-9081
▁×	-9082
!</	-9083
="/	-9084
IPS	-9085
Mon	-9086
SLT	-9087
Sab	-9088
Sen	-9089
aɗi	-9090
cté	-9091
cée	-9092
hel	-9093
inj	-9094
jii	-9095
put	-9096
tun	-9097
uni	-9098
upé	-9099
usa	-9100
web	-9101
wɓe	-9102
zii	-9103
èse	-9104
ñcu	-9105
œil	-9106
ɓee	-9107
▁Ca	-9108
▁Us	-9109
▁pê	-9110
▁sh	-9111
Node	-9112
anie	-9113
anif	-9114
brah	-9115
eule	-9116
fice	-9117
giri	-9118
itay	-9119
jini	-9120
madu	-9121
ngel	-9122
ooru	-9123
ooɗe	-9124
orɗo	-9125
owel	-9126
tout	-9127
wano	-9128
yama	-9129
écar	-9130
ɗini	-9131
▁(%(	-9132
▁:</	-9133
▁Gra	-9134
▁Jon	-9135
▁Lan	-9136
▁Lul	-9137
▁New	-9138
▁Réc	-9139
▁Tro	-9140
▁adu	-9141
▁ayb	-9142
▁bey	-9143
▁gré	-9144
▁han	-9145
▁kal	-9146
▁las	-9147
▁lés	-9148
▁mos	-9149
▁ɗuu	-9150
aines	-9151
angez	-9152
boore	-9153
chons	-9154
daama	-9155
désir	-9156
eewal	-9157
linux	-9158
métri	-9159
ngall	-9160
ouvez	-9161
teeji	-9162
tinir	-9163
tirta	-9164
têtes	-9165
ɗaaɓe	-9166
▁(%1$	-9167
▁Avez	-9168
▁Beta	-9169
▁Fewn	-9170
▁Firo	-9171
▁Giɗo	-9172
▁Iwdi	-9173
▁Lève	-9174
▁Sabu	-9175
▁Sans	-9176
▁Toow	-9177
▁XSLT	-9178
▁accu	-9179
▁arma	-9180
▁awdi	-9181
▁blan	-9182
▁dame	-9183
▁dois	-9184
▁domm	-9185
▁dévo	-9186
▁forg	-9187
▁koye	-9188
▁moqu	-9189
▁pooɗ	-9190
▁pria	-9191
▁retr	-9192
▁soin	-9193
▁séri	-9194
▁toɓo	-9195
▁tugn	-9196
▁twee	-9197
▁vend	-9198
▁vues	-9199
▁vécu	-9200
▁wern	-9201
▁yaad	-9202
▁état	-9203
aurais	-9204
erions	-9205
indira	-9206
iniree	-9207
reront	-9208
uyeeji	-9209
édiate	-9210
ɗingol	-9211
▁Almaa	-9212
▁Cifol	-9213
▁Donne	-9214
▁Fannu	-9215
▁Feere	-9216
▁Inter	-9217
▁Moodi	-9218
▁Trône	-9219
▁Wonaa	-9220
▁about	-9221
▁année	-9222
▁bewre	-9223
▁choix	-9224
▁coggu	-9225
▁culte	-9226
▁dange	-9227
▁démon	-9228
▁firti	-9229
▁hesɗi	-9230
▁holli	-9231
▁janfo	-9232
▁juger	-9233
▁laaɗe	-9234
▁liƴƴi	-9235
▁mball	-9236
▁natte	-9237
▁okkii	-9238
▁peñcu	-9239
▁pitié	-9240
▁poids	-9241
▁rends	-9242
▁récol	-9243
▁saisi	-9244
▁timmi	-9245
▁vôtre	-9246
▁wooto	-9247
▁wowli	-9248
▁yaadi	-9249
▁yaawi	-9250
▁Écrit	-9251
▁éclat	-9252
▁Ɓatak	-9253
abonner	-9254
aveugle	-9255
iblioth	-9256
oytaake	-9257
utation	-9258
▁Dirtin	-9259
▁Marque	-9260
▁Nuluɗo	-9261
▁Server	-9262
▁Wanngo	-9263
▁annabi	-9264
▁appela	-9265
▁baawɗe	-9266
▁bonnde	-9267
▁chargé	-9268
▁client	-9269
▁daalol	-9270
▁devien	-9271
▁entrés	-9272
▁fonndu	-9273
▁gallol	-9274
▁heɓtin	-9275
▁hoɗuɓe	-9276
▁jeewte	-9277
▁jogito	-9278
▁junngo	-9279
▁laatoo	-9280
▁levain	-9281
▁levant	-9282
▁majjii	-9283
▁modèle	-9284
▁njogii	-9285
▁parfum	-9286
▁puisse	-9287
▁rempli	-9288
▁riches	-9289
▁sariya	-9290
▁sauver	-9291
▁située	-9292
▁souffr	-9293
▁séjour	-9294
▁tagere	-9295
▁taguɗo	-9296
▁voyons	-9297
▁wattan	-9298
▁waɗtit	-9299
▁waɗuɗo	-9300
▁wowlan	-9301
▁épouse	-9302
issaient	-9303
truction	-9304
▁Aamiina	-9305
▁Arrêter	-9306
▁Audient	-9307
▁Panneau	-9308
▁Rewindo	-9309
▁Sarwiis	-9310
▁andunoo	-9311
▁animaux	-9312
▁combatt	-9313
▁comprom	-9314
▁cuɓaaɗe	-9315
▁devenus	-9316
▁distant	-9317
▁détruis	-9318
▁fussent	-9319
▁genaale	-9320
▁heɗaade	-9321
▁indésir	-9322
▁jeetati	-9323
▁joganii	-9324
▁jogitii	-9325
▁lettres	-9326
▁maccuɗo	-9327
▁marcher	-9328
▁mbilewu	-9329
▁pensées	-9330
▁renvoyé	-9331
▁retrouv	-9332
▁sukaaɓe	-9333
▁topayɓe	-9334
▁topirde	-9335
▁udditde	-9336
▁wuurnit	-9337
ignominie	-9338
▁Monsieur	-9339
▁Naviguez	-9340
▁Nouvelle	-9341
▁affaires	-9342
▁chercher	-9343
▁convient	-9344
▁distante	-9345
▁faaliraa	-9346
▁fewjooɓe	-9347
▁lokaalde	-9348
▁multipli	-9349
▁muññiiɓe	-9350
▁neldaama	-9351
▁nombreux	-9352
▁pourront	-9353
▁présents	-9354
▁puissant	-9355
▁sarɗiiji	-9356
▁seedeeɓe	-9357
▁seraient	-9358
▁signifie	-9359
▁souvenir	-9360
▁suddiiɓe	-9361
▁sûrement	-9362
▁waawaali	-9363
▁wonndema	-9364
▁yettaade	-9365
▁ñaametee	-9366
▁Masedonii	-9367
▁consultez	-9368
▁contenant	-9369
▁hojomaaji	-9370
▁immédiate	-9371
▁jaaɓdaani	-9372
▁modalités	-9373
▁permettre	-9374
▁promesses	-9375
▁spécifier	-9376
▁Écritures	-9377
▁Définition	-9378
▁FetchEvent	-9379
▁cakkitiiɗi	-9380
▁gomɗinaali	-9381
▁naafiqiiɓe	-9382
▁pleinement	-9383
▁rechercher	-9384
▁simplement	-9385
▁commentaire	-9386
▁fornication	-9387
▁malédiction	-9388
▁suggestions	-9389
▁conversation	-9390
▁instructions	-9391
24	-9392
})	-9393
▁Ê	-9394
000	-9395
239	-9396
Cro	-9397
Pro	-9398
Que	-9399
clé	-9400
dan	-9401
fig	-9402
irm	-9403
pal	-9404
pap	-9405
ppa	-9406
wde	-9407
▁Ee	-9408
▁Ho	-9409
▁Va	-9410
▁cy	-9411
▁dû	-9412
▁“<	-9413
">%(	-9414
'></	-9415
List	-9416
Ndee	-9417
aafo	-9418
aati	-9419
arri	-9420
coun	-9421
diff	-9422
diti	-9423
eeki	-9424
ieux	-9425
ilol	-9426
lets	-9427
lier	-9428
ommb	-9429
ommé	-9430
onse	-9431
oora	-9432
ooɗo	-9433
oron	-9434
owol	-9435
phel	-9436
pher	-9437
quit	-9438
saïe	-9439
umar	-9440
unay	-9441
unna	-9442
uuri	-9443
érez	-9444
▁DRM	-9445
▁Efe	-9446
▁Foc	-9447
▁MDN	-9448
▁Naw	-9449
▁Pos	-9450
▁RSA	-9451
▁Wel	-9452
▁bak	-9453
▁ban	-9454
▁cow	-9455
▁def	-9456
▁fré	-9457
▁jeu	-9458
▁kil	-9459
▁lug	-9460
▁mbe	-9461
▁mbu	-9462
▁moz	-9463
▁omb	-9464
▁pla	-9465
▁sag	-9466
▁sii	-9467
▁yur	-9468
▁Éph	-9469
▁ƴoƴ	-9470
▁ɗis	-9471
=<%5$	-9472
Jooni	-9473
Media	-9474
ahadi	-9475
andes	-9476
ardin	-9477
aucun	-9478
deede	-9479
engag	-9480
euses	-9481
fault	-9482
irɗon	-9483
ombre	-9484
oncer	-9485
rions	-9486
terms	-9487
totoo	-9488
tudes	-9489
ñtudi	-9490
▁"%1$	-9491
▁Fadd	-9492
▁Falo	-9493
▁Gall	-9494
▁Mady	-9495
▁Mise	-9496
▁andu	-9497
▁arrê	-9498
▁berg	-9499
▁bloc	-9500
▁bugg	-9501
▁dunc	-9502
▁fadd	-9503
▁hato	-9504
▁hawr	-9505
▁hulɓ	-9506
▁inst	-9507
▁iwii	-9508
▁jeye	-9509
▁jigg	-9510
▁jogo	-9511
▁jort	-9512
▁kuur	-9513
▁levé	-9514
▁meeɗ	-9515
▁muyn	-9516
▁nate	-9517
▁nayi	-9518
▁peux	-9519
▁pleu	-9520
▁poin	-9521
▁riiw	-9522
▁ruse	-9523
▁simp	-9524
▁sugu	-9525
▁topp	-9526
▁tuug	-9527
▁voud	-9528
▁weel	-9529
▁émig	-9530
▁ƴawi	-9531
▁ɗate	-9532
Anndee	-9533
Certes	-9534
alisés	-9535
anaaɓe	-9536
chrome	-9537
cteurs	-9538
ellent	-9539
inirde	-9540
iraaka	-9541
istent	-9542
ration	-9543
uurnir	-9544
échapp	-9545
▁Bimbi	-9546
▁Garde	-9547
▁Golle	-9548
▁Jamaa	-9549
▁Lanɗo	-9550
▁Seede	-9551
▁allés	-9552
▁bakii	-9553
▁besti	-9554
▁bruit	-9555
▁cesse	-9556
▁effac	-9557
▁gonɗi	-9558
▁grain	-9559
▁jeton	-9560
▁jokka	-9561
▁jomba	-9562
▁kewii	-9563
▁lekki	-9564
▁mante	-9565
▁masii	-9566
▁mbele	-9567
▁menti	-9568
▁meurt	-9569
▁quels	-9570
▁salii	-9571
▁seuls	-9572
▁tawɗo	-9573
▁tesko	-9574
▁thème	-9575
▁wallu	-9576
▁étiqu	-9577
▁ñande	-9578
Audient	-9579
aarewol	-9580
appelle	-9581
attente	-9582
blement	-9583
honneur	-9584
incombe	-9585
papiers	-9586
▁Alanaa	-9587
▁Baalun	-9588
▁Duunde	-9589
▁Hommes	-9590
▁Laatii	-9591
▁Lancer	-9592
▁Origin	-9593
▁Raison	-9594
▁Sacrée	-9595
▁Seezar	-9596
▁Teskin	-9597
▁acquit	-9598
▁addude	-9599
▁aroyay	-9600
▁châtie	-9601
▁compar	-9602
▁confus	-9603
▁darnde	-9604
▁désins	-9605
▁fennii	-9606
▁finale	-9607
▁frappe	-9608
▁guidée	-9609
▁guéris	-9610
▁iwrude	-9611
▁mbawdi	-9612
▁monter	-9613
▁nettoy	-9614
▁ngalaa	-9615
▁option	-9616
▁paykoy	-9617
▁posséd	-9618
▁rejeté	-9619
▁retiré	-9620
▁réussi	-9621
▁saatin	-9622
▁sakket	-9623
▁sortis	-9624
▁sujets	-9625
▁touché	-9626
▁waajoo	-9627
▁wonira	-9628
▁wontii	-9629
▁yaltii	-9630
▁Ñalngu	-9631
▁ɓooyii	-9632
Pourquoi	-9633
damfaaje	-9634
timediff	-9635
unnaange	-9636
ɲalaande	-9637
▁Alluwel	-9638
▁Commenc	-9639
▁Détails	-9640
▁Laissez	-9641
▁Mosquée	-9642
▁Obtenir	-9643
▁Widewoo	-9644
▁Wuuruɗo	-9645
▁Yedduɓe	-9646
▁alluwal	-9647
▁boneeji	-9648
▁dessein	-9649
▁doctype	-9650
▁délivré	-9651
▁fidèles	-9652
▁goɗngal	-9653
▁heureux	-9654
▁hulataa	-9655
▁koriima	-9656
▁kukiije	-9657
▁limiter	-9658
▁majjini	-9659
▁méfaits	-9660
▁organis	-9661
▁peuples	-9662
▁profils	-9663
▁raisons	-9664
▁raɓɓiɗi	-9665
▁rewindo	-9666
▁royauté	-9667
▁siforii	-9668
▁souvent	-9669
▁udditii	-9670
▁vivants	-9671
▁voulons	-9672
▁waɗanii	-9673
▁waɗunoo	-9674
▁Élément	-9675
▁Ɗemngal	-9676
▁ɗiɗooɓe	-9677
ppression	-9678
processus	-9679
réciation	-9680
uellement	-9681
upération	-9682
▁Désactiv	-9683
▁Développ	-9684
▁Hattanɗo	-9685
▁Yeewtere	-9686
▁allaient	-9687
▁aseweere	-9688
▁auxquels	-9689
▁bestiaux	-9690
▁commanda	-9691
▁courante	-9692
▁daaƴaama	-9693
▁dawrugol	-9694
▁demeurez	-9695
▁difficul	-9696
▁donnâmes	-9697
▁faalaɗon	-9698
▁feddeeji	-9699
▁glorifie	-9700
▁informer	-9701
▁jardukun	-9702
▁joofirde	-9703
▁mantoore	-9704
▁ressembl	-9705
▁secourir	-9706
▁timmitte	-9707
▁tuggordu	-9708
▁waajaade	-9709
▁yaafuyee	-9710
▁Détenteur	-9711
▁autoriser	-9712
▁autorisée	-9713
▁centenier	-9714
▁difficile	-9715
▁noddirgel	-9716
▁nécessite	-9717
▁programme	-9718
▁propriéta	-9719
▁restaurer	-9720
▁réconcili	-9721
▁suivantes	-9722
▁suuriinde	-9723
▁transport	-9724
▁tristesse	-9725
▁viendront	-9726
▁ƴeewtaama	-9727
ertissement	-9728
▁Certificat	-9729
▁Configurer	-9730
▁Historique	-9731
▁accessible	-9732
▁enseignait	-9733
▁gomɗinooɓe	-9734
▁inattendue	-9735
▁pourraient	-9736
▁repentance	-9737
autorisation	-9738
▁yeddondiral	-9739
▁Installation	-9740
▁complètement	-9741
▁condamnation	-9742
▁conformément	-9743
▁enregistrées	-9744
▁probablement	-9745
▁sartifikaaji	-9746
LinkAttributes	-9747
▁véritablement	-9748
▁journalisation	-9749
▁supplémentaires	-9750
11	-9751
Et	-9752
PE	-9753
Pu	-9754
ye	-9755
za	-9756
îm	-9757
ïe	-9758
ïs	-9759
ƴe	-9760
▁8	-9761
:</	-9762
;</	-9763
Moi	-9764
Nde	-9765
aañ	-9766
aît	-9767
bba	-9768
car	-9769
hal	-9770
hum	-9771
ive	-9772
jun	-9773
lay	-9774
mas	-9775
new	-9776
off	-9777
tro	-9778
unh	-9779
uya	-9780
yah	-9781
Ɓay	-9782
▁'%	-9783
▁Ah	-9784
▁Bé	-9785
▁er	-9786
▁tâ	-9787
agal	-9788
alla	-9789
araa	-9790
araî	-9791
ayez	-9792
enfu	-9793
ensu	-9794
erif	-9795
file	-9796
nori	-9797
ouer	-9798
oyee	-9799
play	-9800
prec	-9801
umin	-9802
vidu	-9803
zaru	-9804
▁Aaw	-9805
▁Dev	-9806
▁Doc	-9807
▁Dès	-9808
▁Fen	-9809
▁Fiɓ	-9810
▁Gor	-9811
▁Haw	-9812
▁Mem	-9813
▁SMS	-9814
▁Sau	-9815
▁Ser	-9816
▁bât	-9817
▁cif	-9818
▁dra	-9819
▁fau	-9820
▁jat	-9821
▁lel	-9822
▁pop	-9823
▁sum	-9824
▁sus	-9825
▁tew	-9826
▁wiy	-9827
▁yer	-9828
▁ɲol	-9829
anner	-9830
ctets	-9831
diyan	-9832
elopp	-9833
fedde	-9834
fiées	-9835
ieuse	-9836
inana	-9837
joint	-9838
média	-9839
ordin	-9840
orted	-9841
oupes	-9842
outez	-9843
ouvre	-9844
ranch	-9845
rataa	-9846
roowo	-9847
sière	-9848
tanii	-9849
tools	-9850
yorde	-9851
èdent	-9852
Ɓeydu	-9853
▁Ajou	-9854
▁Army	-9855
▁Base	-9856
▁Beth	-9857
▁Bone	-9858
▁Bugg	-9859
▁Cour	-9860
▁Débo	-9861
▁Empê	-9862
▁Juif	-9863
▁Kere	-9864
▁Muññ	-9865
▁Ojoo	-9866
▁Rejo	-9867
▁Suiv	-9868
▁Tham	-9869
▁Yaaw	-9870
▁arti	-9871
▁avil	-9872
▁bons	-9873
▁camp	-9874
▁crée	-9875
▁cuɓo	-9876
▁darj	-9877
▁diss	-9878
▁doga	-9879
▁dogu	-9880
▁embr	-9881
▁empl	-9882
▁fant	-9883
▁gire	-9884
▁géré	-9885
▁insu	-9886
▁ittu	-9887
▁jeûn	-9888
▁jubb	-9889
▁kato	-9890
▁mehi	-9891
▁murm	-9892
▁njan	-9893
▁paɗe	-9894
▁puɗɗ	-9895
▁race	-9896
▁réun	-9897
▁seŋo	-9898
▁sifo	-9899
▁sout	-9900
▁suka	-9901
▁tamƴ	-9902
▁turp	-9903
▁tuta	-9904
▁waru	-9905
▁wiif	-9906
▁élev	-9907
▁ôter	-9908
▁ɓuuɓ	-9909
alkule	-9910
anaaka	-9911
antill	-9912
assent	-9913
inaaɗe	-9914
inirta	-9915
mettre	-9916
option	-9917
prises	-9918
report	-9919
ulmans	-9920
ŋkoore	-9921
▁Alfaa	-9922
▁Fello	-9923
▁Geɗel	-9924
▁Karte	-9925
▁Kooke	-9926
▁Ordin	-9927
▁Selon	-9928
▁Tesko	-9929
▁Waɗtu	-9930
▁ajout	-9931
▁arabe	-9932
▁bêtes	-9933
▁combl	-9934
▁dimɗe	-9935
▁doués	-9936
▁décla	-9937
▁dépou	-9938
▁dîmes	-9939
▁envie	-9940
▁feeñi	-9941
▁formé	-9942
▁gardi	-9943
▁hinde	-9944
▁indis	-9945
▁insin	-9946
▁jeeji	-9947
▁jiwɓe	-9948
▁juuti	-9949
▁lunnd	-9950
▁minen	-9951
▁ngoll	-9952
▁nuire	-9953
▁okkit	-9954
▁raill	-9955
▁satis	-9956
▁selli	-9957
▁souci	-9958
▁synta	-9959
▁tanaa	-9960
▁taway	-9961
▁tombe	-9962
▁wonɗe	-9963
▁yahay	-9964
▁yeɗii	-9965
▁étudi	-9966
▁ɓabbe	-9967
▁ɗatal	-9968
▁ɗaɓɓu	-9969
▁ɗowdi	-9970
aissent	-9971
anndude	-9972
enaient	-9973
ensuite	-9974
heureux	-9975
oration	-9976
étation	-9977
▁Adorez	-9978
▁Compte	-9979
▁Kuuɓal	-9980
▁Maison	-9981
▁Misira	-9982
▁Sinndo	-9983
▁Valeur	-9984
▁afferm	-9985
▁anéant	-9986
▁apôtre	-9987
▁baafal	-9988
▁barkin	-9989
▁carwol	-9990
▁craint	-9991
▁décide	-9992
▁exhort	-9993
▁exécut	-9994
▁faggit	-9995
▁fermes	-9996
▁hakkee	-9997
▁huɓind	-9998
▁iwruɗo	-9999
▁maanaa	-10000
▁mandil	-10001
▁matéri	-10002
▁meeɗin	-10003
▁mourut	-10004
▁mépris	-10005
▁objets	-10006
▁obstru	-10007
▁ordres	-10008
▁pauvre	-10009
▁pensée	-10010
▁représ	-10011
▁restés	-10012
▁ruttit	-10013
▁saisie	-10014
▁troubl	-10015
▁waaway	-10016
▁wallit	-10017
▁éclair	-10018
Puissant	-10019
cryption	-10020
ficateur	-10021
origines	-10022
écriture	-10023
▁Almaami	-10024
▁Caɗeele	-10025
▁Ceŋorɗe	-10026
▁Envoyés	-10027
▁Leemtir	-10028
▁Maryama	-10029
▁Monitor	-10030
▁Rapport	-10031
▁accaali	-10032
▁accepte	-10033
▁alkulal	-10034
▁arrivés	-10035
▁besoins	-10036
▁couleur	-10037
▁devrait	-10038
▁diables	-10039
▁dispers	-10040
▁donnent	-10041
▁détecté	-10042
▁excepté	-10043
▁heɓataa	-10044
▁jogiiɗo	-10045
▁laaɓuɗo	-10046
▁masiŋel	-10047
▁nafataa	-10048
▁ndernde	-10049
▁ouverte	-10050
▁partagé	-10051
▁pourrez	-10052
▁pousser	-10053
▁protège	-10054
▁puɗɗito	-10055
▁période	-10056
▁quoique	-10057
▁remooɓe	-10058
▁saluent	-10059
▁sauront	-10060
▁serpent	-10061
▁suɓiima	-10062
▁tammere	-10063
▁teeltol	-10064
▁toraade	-10065
▁wiifngo	-10066
▁yaltina	-10067
▁yaltini	-10068
▁écoutez	-10069
▁ƴeewndo	-10070
▁ɗenngal	-10071
▁Document	-10072
▁Emportez	-10073
▁Hakkunde	-10074
▁Résoudre	-10075
▁Taƴtorde	-10076
▁Utilisez	-10077
▁apporter	-10078
▁argument	-10079
▁diverses	-10080
▁donnerai	-10081
▁déconnec	-10082
▁envelopp	-10083
▁habrirde	-10084
▁hoolaaki	-10085
▁humondir	-10086
▁intellig	-10087
▁ngaluuji	-10088
▁paddagol	-10089
▁paiement	-10090
▁puissiez	-10091
▁sakkitor	-10092
▁serments	-10093
▁souffert	-10094
▁tentinii	-10095
▁tiennent	-10096
▁transmis	-10097
▁trouvent	-10098
▁tugnaade	-10099
▁waktuuji	-10100
▁weldiiɓe	-10101
▁winndude	-10102
▁ñawndude	-10103
▁ɗoftoɗon	-10104
▁ɲaamugol	-10105
engagement	-10106
▁Annabaaɓe	-10107
▁Fiilannde	-10108
▁Fonctionn	-10109
▁Maantorol	-10110
▁Prophètes	-10111
▁accordera	-10112
▁descendit	-10113
▁exception	-10114
▁hirnaange	-10115
▁injustice	-10116
▁installés	-10117
▁keynguujo	-10118
▁keynguuɓe	-10119
▁noddaandu	-10120
▁prochaine	-10121
▁prophétie	-10122
▁prophétis	-10123
▁teeŋtinol	-10124
▁tonngoode	-10125
▁turpitude	-10126
▁véritable	-10127
▁ɓanndinke	-10128
ibliothèque	-10129
▁Maintenant	-10130
▁keftinirɗe	-10131
▁permettent	-10132
▁sacrifices	-10133
▁similitude	-10134
▁certificate	-10135
▁convoitises	-10136
▁permissions	-10137
▁indésirables	-10138
▁synchroniser	-10139
▁Personnaliser	-10140
▁multiorigines	-10141
▁XMLHttpRequest	-10142
▁ɓanngannduyeeji	-10143
.<	-10144
0;	-10145
>)	-10146
AC	-10147
Am	-10148
cs	-10149
js	-10150
ɲo	-10151
163	-10152
ATE	-10153
Car	-10154
Dés	-10155
IDI	-10156
RTC	-10157
amb	-10158
hor	-10159
hér	-10160
icy	-10161
kam	-10162
mbu	-10163
old	-10164
orn	-10165
pnb	-10166
qua	-10167
rac	-10168
tab	-10169
the	-10170
tnb	-10171
tus	-10172
}">	-10173
âme	-10174
épr	-10175
îme	-10176
ɓol	-10177
▁32	-10178
▁Bo	-10179
▁We	-10180
▁XP	-10181
▁cé	-10182
▁ns	-10183
▁sy	-10184
▁Ɗe	-10185
Ceci	-10186
Date	-10187
Mbar	-10188
Yahu	-10189
amɓe	-10190
aytu	-10191
enee	-10192
help	-10193
ietf	-10194
invo	-10195
irɓe	-10196
lang	-10197
like	-10198
load	-10199
long	-10200
lore	-10201
mamy	-10202
nike	-10203
ondo	-10204
ound	-10205
roge	-10206
sign	-10207
uuru	-10208
warn	-10209
yaas	-10210
èver	-10211
élev	-10212
▁API	-10213
▁Bas	-10214
▁Caï	-10215
▁Dom	-10216
▁Hee	-10217
▁Mîm	-10218
▁Tab	-10219
▁Wor	-10220
▁Wur	-10221
▁alj	-10222
▁ant	-10223
▁arm	-10224
▁aum	-10225
▁bri	-10226
▁béb	-10227
▁dok	-10228
▁fad	-10229
▁gom	-10230
▁hau	-10231
▁iss	-10232
▁lay	-10233
▁lin	-10234
▁pat	-10235
▁piè	-10236
▁taa	-10237
▁the	-10238
▁tri	-10239
▁Ɗon	-10240
Count	-10241
Onsay	-10242
améli	-10243
aussi	-10244
creen	-10245
diale	-10246
emins	-10247
emple	-10248
fooɓe	-10249
gents	-10250
ibles	-10251
ignée	-10252
impos	-10253
irten	-10254
istre	-10255
liigu	-10256
lorer	-10257
ongel	-10258
ongol	-10259
ortee	-10260
otono	-10261
owrow	-10262
oygol	-10263
quité	-10264
ressé	-10265
reuse	-10266
saaqa	-10267
taire	-10268
tattr	-10269
togol	-10270
total	-10271
xante	-10272
yngol	-10273
ɗinal	-10274
▁Amin	-10275
▁Ciif	-10276
▁Coll	-10277
▁Jaaw	-10278
▁MIDI	-10279
▁Miim	-10280
▁Nodd	-10281
▁Same	-10282
▁Zach	-10283
▁adda	-10284
▁anci	-10285
▁attr	-10286
▁bles	-10287
▁boit	-10288
▁ceer	-10289
▁chag	-10290
▁doig	-10291
▁gros	-10292
▁haɗi	-10293
▁hikk	-10294
▁inni	-10295
▁jaay	-10296
▁jaaƴ	-10297
▁jame	-10298
▁katt	-10299
▁kipp	-10300
▁kunn	-10301
▁miɲɲ	-10302
▁nebb	-10303
▁ngaw	-10304
▁orig	-10305
▁rigu	-10306
▁régn	-10307
▁sème	-10308
▁taar	-10309
▁weer	-10310
▁yarl	-10311
▁yeɗa	-10312
▁zèle	-10313
▁Élie	-10314
▁ƴent	-10315
▁ɗeen	-10316
▁ɗenƴ	-10317
Almamy	-10318
adorer	-10319
angage	-10320
aniiɗo	-10321
change	-10322
classe	-10323
client	-10324
hommes	-10325
import	-10326
inegol	-10327
irooɓe	-10328
omains	-10329
recent	-10330
Égypte	-10331
Ƴeewto	-10332
▁Aarab	-10333
▁Aaron	-10334
▁Audio	-10335
▁Autre	-10336
▁Démar	-10337
▁Faddo	-10338
▁Fourn	-10339
▁Grecs	-10340
▁Ibrah	-10341
▁Journ	-10342
▁Leydi	-10343
▁Lulno	-10344
▁Naatn	-10345
▁Wanaa	-10346
▁Yillo	-10347
▁accès	-10348
▁amour	-10349
▁andit	-10350
▁arani	-10351
▁arano	-10352
▁barki	-10353
▁cents	-10354
▁domin	-10355
▁expul	-10356
▁faits	-10357
▁fonde	-10358
▁forme	-10359
▁génér	-10360
▁heɓay	-10361
▁heɗit	-10362
▁initi	-10363
▁janfa	-10364
▁jeter	-10365
▁jette	-10366
▁kooke	-10367
▁kuddi	-10368
▁latér	-10369
▁local	-10370
▁maadi	-10371
▁mayɗo	-10372
▁mbeɗu	-10373
▁mbull	-10374
▁naatu	-10375
▁ngati	-10376
▁ngoon	-10377
▁njill	-10378
▁njowo	-10379
▁nulle	-10380
▁onɗon	-10381
▁outra	-10382
▁palmi	-10383
▁photo	-10384
▁regar	-10385
▁sable	-10386
▁sache	-10387
▁sanne	-10388
▁scell	-10389
▁somme	-10390
▁tagee	-10391
▁tamar	-10392
▁têtes	-10393
▁valid	-10394
▁voyag	-10395
▁waɗaa	-10396
▁yahaa	-10397
▁Ésaïe	-10398
▁ɓeydi	-10399
▁ɓoggi	-10400
▁ɗaɓɓa	-10401
aanaama	-10402
aariijo	-10403
aynooɓe	-10404
aynooɗo	-10405
centage	-10406
goritma	-10407
inannde	-10408
totooɓe	-10409
veiller	-10410
▁Bloqué	-10411
▁Carwol	-10412
▁Hollir	-10413
▁Lazare	-10414
▁Naamno	-10415
▁Ndiyan	-10416
▁Nouvel	-10417
▁Thamûd	-10418
▁adorez	-10419
▁adunay	-10420
▁ajouté	-10421
▁baawɗo	-10422
▁champs	-10423
▁concer	-10424
▁dannda	-10425
▁dignes	-10426
▁disons	-10427
▁gollay	-10428
▁habite	-10429
▁heɓude	-10430
▁incomp	-10431
▁jokkii	-10432
▁laaɓaa	-10433
▁néglig	-10434
▁orphel	-10435
▁places	-10436
▁pleins	-10437
▁pottin	-10438
▁profit	-10439
▁qirrit	-10440
▁racine	-10441
▁rendra	-10442
▁retira	-10443
▁rogere	-10444
▁ronkii	-10445
▁révéla	-10446
▁soyons	-10447
▁suppli	-10448
▁tenant	-10449
▁troupe	-10450
▁udditi	-10451
▁winndi	-10452
▁wonuɓe	-10453
▁yejjit	-10454
▁yiyloo	-10455
Internet	-10456
Veuillez	-10457
answered	-10458
eusement	-10459
▁Marquer	-10460
▁Musiɓɓe	-10461
▁affiché	-10462
▁andiron	-10463
▁anniyee	-10464
▁aranere	-10465
▁arrivée	-10466
▁atteind	-10467
▁augment	-10468
▁bonnere	-10469
▁cachent	-10470
▁chaînes	-10471
▁communi	-10472
▁compter	-10473
▁discern	-10474
▁douceur	-10475
▁exhorte	-10476
▁favoris	-10477
▁goonɗin	-10478
▁harayno	-10479
▁hewtoyi	-10480
▁heɓaade	-10481
▁immense	-10482
▁jokkuɗo	-10483
▁koyeera	-10484
▁kurkaad	-10485
▁maccuɓe	-10486
▁mahaaki	-10487
▁mangent	-10488
▁moƴƴuɗi	-10489
▁nanataa	-10490
▁noddude	-10491
▁patient	-10492
▁prononc	-10493
▁protégé	-10494
▁péagers	-10495
▁pécheur	-10496
▁raccour	-10497
▁recevra	-10498
▁revient	-10499
▁rigueur	-10500
▁sixième	-10501
▁traiter	-10502
▁waɗooɓe	-10503
▁weltori	-10504
▁woondii	-10505
▁écouter	-10506
▁étonnés	-10507
affichage	-10508
▁Jippinaa	-10509
▁Mikkoroo	-10510
▁Reentino	-10511
▁Winndere	-10512
▁adresses	-10513
▁affligés	-10514
▁capables	-10515
▁croiront	-10516
▁cuɓirgol	-10517
▁envoyées	-10518
▁faalaaɗo	-10519
▁fuɗɗorde	-10520
▁golloowo	-10521
▁humpitde	-10522
▁jammaaɗo	-10523
▁jaɓɓaama	-10524
▁kaɓirgal	-10525
▁laissant	-10526
▁mikkoroo	-10527
▁naatataa	-10528
▁nawliigu	-10529
▁noddugol	-10530
▁nokkeeli	-10531
▁pointeur	-10532
▁poissons	-10533
▁possédez	-10534
▁prièrent	-10535
▁produits	-10536
▁profonde	-10537
▁rappelle	-10538
▁seeɗaaɓe	-10539
▁seigneur	-10540
▁soixante	-10541
▁sonnaajo	-10542
▁tabintin	-10543
▁troupeau	-10544
▁voulions	-10545
▁waajagol	-10546
▁wondiɓɓe	-10547
▁woɗɗitii	-10548
▁éprouver	-10549
▁ɓooyaani	-10550
unanswered	-10551
▁Coktirgal	-10552
▁Developer	-10553
▁Mooftirde	-10554
▁Tiitoonde	-10555
▁ardotooɓe	-10556
▁banngorɗe	-10557
▁combattre	-10558
▁connectez	-10559
▁découvrir	-10560
▁entendent	-10561
▁haqqiltaa	-10562
▁héritiers	-10563
▁janndeeji	-10564
▁maantinol	-10565
▁ndaaƴaama	-10566
▁perdition	-10567
▁poussière	-10568
▁retourner	-10569
▁reçoivent	-10570
▁stabilité	-10571
▁suivirent	-10572
▁sélection	-10573
▁technolog	-10574
▁tutateeri	-10575
interrogent	-10576
onnaissable	-10577
privacyLink	-10578
respondWith	-10579
▁Ballitoowo	-10580
▁Seezariiya	-10581
▁Yawtaneede	-10582
▁connaissez	-10583
▁désactivés	-10584
▁enseignant	-10585
▁facilement	-10586
▁formulaire	-10587
▁multimédia	-10588
▁préférence	-10589
▁salaanaama	-10590
▁silsilaaji	-10591
entification	-10592
▁afflictions	-10593
▁comprennent	-10594
▁connaissons	-10595
▁contextuels	-10596
▁descendance	-10597
▁welsindiiɓe	-10598
▁développeurs	-10599
translatedCity	-10600
▁exclusivement	-10601
▁immédiatement	-10602
▁propriétaires	-10603
translatedState	-10604
▁définitivement	-10605
:"	-10606
AR	-10607
CE	-10608
ET	-10609
TF	-10610
UI	-10611
VG	-10612
rc	-10613
Âd	-10614
Les	-10615
ban	-10616
bol	-10617
cus	-10618
dev	-10619
eey	-10620
gno	-10621
her	-10622
inq	-10623
man	-10624
mee	-10625
mɓe	-10626
obe	-10627
yle	-10628
▁Lo	-10629
▁Là	-10630
▁OK	-10631
▁Ro	-10632
▁Sh	-10633
▁Ɗi	-10634
Isaa	-10635
Jokk	-10636
Paix	-10637
aies	-10638
appr	-10639
attr	-10640
aɗen	-10641
dure	-10642
ecci	-10643
enfl	-10644
font	-10645
howo	-10646
iden	-10647
iika	-10648
iimi	-10649
iiƴe	-10650
illi	-10651
inɓe	-10652
ionn	-10653
iris	-10654
iɗen	-10655
llem	-10656
ogra	-10657
oive	-10658
oyre	-10659
oƴƴu	-10660
rète	-10661
tana	-10662
ttes	-10663
çait	-10664
èvre	-10665
ɓgol	-10666
▁!</	-10667
▁#3.	-10668
▁Ken	-10669
▁Lec	-10670
▁Man	-10671
▁Mej	-10672
▁Njo	-10673
▁Noo	-10674
▁Per	-10675
▁Por	-10676
▁Pul	-10677
▁SVG	-10678
▁The	-10679
▁UTF	-10680
▁Yur	-10681
▁aig	-10682
▁cre	-10683
▁cuu	-10684
▁did	-10685
▁duñ	-10686
▁dén	-10687
▁dév	-10688
▁fat	-10689
▁fiɗ	-10690
▁gal	-10691
▁ifr	-10692
▁jul	-10693
▁liɓ	-10694
▁mou	-10695
▁raw	-10696
▁win	-10697
▁Île	-10698
▁ɲok	-10699
Audio	-10700
Cross	-10701
aalii	-10702
aasol	-10703
admir	-10704
ality	-10705
anngu	-10706
arque	-10707
aîtra	-10708
diiɗo	-10709
ditol	-10710
enait	-10711
ernac	-10712
ester	-10713
eteen	-10714
garer	-10715
laama	-10716
leste	-10717
lever	-10718
lorɗe	-10719
nooje	-10720
oowel	-10721
ornoo	-10722
outer	-10723
poser	-10724
quera	-10725
rypto	-10726
serve	-10727
taine	-10728
tiɗon	-10729
toree	-10730
truis	-10731
urant	-10732
étude	-10733
ɗiiɗo	-10734
▁Donc	-10735
▁FIPS	-10736
▁Gine	-10737
▁Haan	-10738
▁Isma	-10739
▁Ital	-10740
▁Kori	-10741
▁Naat	-10742
▁Suis	-10743
▁Wonn	-10744
▁Yuun	-10745
▁aani	-10746
▁addu	-10747
▁bran	-10748
▁bébé	-10749
▁cokl	-10750
▁cood	-10751
▁cukk	-10752
▁daar	-10753
▁fank	-10754
▁fati	-10755
▁firi	-10756
▁flux	-10757
▁focc	-10758
▁fran	-10759
▁gonn	-10760
▁jojj	-10761
▁jugé	-10762
▁koɓe	-10763
▁liés	-10764
▁lour	-10765
▁lève	-10766
▁mets	-10767
▁mout	-10768
▁muet	-10769
▁peul	-10770
▁préf	-10771
▁régl	-10772
▁satt	-10773
▁tigg	-10774
▁tuez	-10775
▁vign	-10776
▁wari	-10777
▁wiir	-10778
▁yant	-10779
▁yeeb	-10780
▁}...	-10781
▁ɗeɓi	-10782
▁ɗiya	-10783
Connec	-10784
Gomɗii	-10785
Tiiɗno	-10786
afflic	-10787
alisez	-10788
andard	-10789
antaas	-10790
aucune	-10791
caméra	-10792
ectuer	-10793
enaari	-10794
ignent	-10795
intina	-10796
iraɗon	-10797
issage	-10798
itaama	-10799
itoire	-10800
ndeeji	-10801
ondire	-10802
reinte	-10803
tionne	-10804
tungol	-10805
urndam	-10806
▁Créez	-10807
▁Dannd	-10808
▁Image	-10809
▁Laamu	-10810
▁Leurs	-10811
▁Maaɗa	-10812
▁Neɗɗo	-10813
▁Oumar	-10814
▁Panni	-10815
▁Sacri	-10816
▁Samar	-10817
▁Wasiy	-10818
▁aimer	-10819
▁appli	-10820
▁baaso	-10821
▁basiy	-10822
▁blâma	-10823
▁bonki	-10824
▁bourg	-10825
▁daaɗe	-10826
▁dents	-10827
▁durée	-10828
▁délib	-10829
▁effec	-10830
▁expli	-10831
▁fayde	-10832
▁fewna	-10833
▁froid	-10834
▁gunnd	-10835
▁haɗde	-10836
▁heɓoo	-10837
▁hâter	-10838
▁intég	-10839
▁janna	-10840
▁jugez	-10841
▁laawi	-10842
▁lewen	-10843
▁manta	-10844
▁maris	-10845
▁mejaa	-10846
▁muñal	-10847
▁nanɗe	-10848
▁nawni	-10849
▁ndaɗɗ	-10850
▁ndokk	-10851
▁nowru	-10852
▁pilot	-10853
▁porté	-10854
▁pouss	-10855
▁pâque	-10856
▁rewee	-10857
▁reçus	-10858
▁servi	-10859
▁sifaa	-10860
▁super	-10861
▁tagii	-10862
▁timma	-10863
▁train	-10864
▁vingt	-10865
▁waawa	-10866
▁wadde	-10867
▁wonɗi	-10868
▁étend	-10869
▁Ɓetol	-10870
▁ɓeyda	-10871
▁ɓurɗi	-10872
Sabaabu	-10873
accepte	-10874
aytuuni	-10875
cession	-10876
essayez	-10877
issants	-10878
itiques	-10879
kameraa	-10880
oreille	-10881
ortable	-10882
tineede	-10883
tumeere	-10884
ériques	-10885
▁Depuis	-10886
▁Ngonka	-10887
▁Piille	-10888
▁Propri	-10889
▁Quelqu	-10890
▁Rendez	-10891
▁Renndo	-10892
▁Retour	-10893
▁aiment	-10894
▁anndon	-10895
▁causer	-10896
▁chasse	-10897
▁conclu	-10898
▁connue	-10899
▁cosgol	-10900
▁devoir	-10901
▁duumii	-10902
▁désesp	-10903
▁désire	-10904
▁etiima	-10905
▁exposé	-10906
▁faamii	-10907
▁famɗii	-10908
▁fermés	-10909
▁feront	-10910
▁fillit	-10911
▁gaawte	-10912
▁guider	-10913
▁guérir	-10914
▁haqiiq	-10915
▁hawnii	-10916
▁hayfin	-10917
▁honnde	-10918
▁hoolii	-10919
▁ignoré	-10920
▁implor	-10921
▁jarrib	-10922
▁jeenay	-10923
▁jiccii	-10924
▁karall	-10925
▁maggol	-10926
▁mboddi	-10927
▁naatir	-10928
▁naatoy	-10929
▁nanude	-10930
▁ndaari	-10931
▁ndondi	-10932
▁neemin	-10933
▁neeɓii	-10934
▁obtenu	-10935
▁partit	-10936
▁points	-10937
▁priant	-10938
▁prêché	-10939
▁quitté	-10940
▁rewata	-10941
▁récent	-10942
▁récite	-10943
▁solide	-10944
▁souffl	-10945
▁sourds	-10946
▁subaka	-10947
▁tenait	-10948
▁vision	-10949
▁vôtres	-10950
▁waajit	-10951
▁window	-10952
▁wulnde	-10953
▁yewtir	-10954
▁yurmin	-10955
▁ɓanndu	-10956
Creative	-10957
estation	-10958
indirgol	-10959
intingol	-10960
ortaient	-10961
tantaake	-10962
▁Cifagol	-10963
▁Césarée	-10964
▁Preview	-10965
▁Silaasi	-10966
▁Tedduɗo	-10967
▁alluwel	-10968
▁assurer	-10969
▁conseil	-10970
▁contrée	-10971
▁convain	-10972
▁céleste	-10973
▁daalani	-10974
▁dokimaa	-10975
▁définir	-10976
▁dépassé	-10977
▁dérober	-10978
▁empêche	-10979
▁fardeau	-10980
▁fortifi	-10981
▁gasataa	-10982
▁heertin	-10983
▁helmere	-10984
▁heɓugol	-10985
▁humaine	-10986
▁jaɓaali	-10987
▁jiyaaɓe	-10988
▁lollina	-10989
▁maakani	-10990
▁manteau	-10991
▁marqués	-10992
▁mbaawka	-10993
▁mission	-10994
▁mozilla	-10995
▁musiɗɓe	-10996
▁nafakka	-10997
▁nafoore	-10998
▁nourrit	-10999
▁okkaaɓe	-11000
▁pouvant	-11001
▁sachiez	-11002
▁sattuɗe	-11003
▁souffre	-11004
▁stratag	-11005
▁suɓaaɓe	-11006
▁teddude	-11007
▁visible	-11008
▁wondema	-11009
▁woniino	-11010
▁yewtata	-11011
▁éternel	-11012
▁ñalawma	-11013
▁Ƴeewndo	-11014
▁ɗerewol	-11015
apparence	-11016
intention	-11017
▁Articles	-11018
▁Jaabawol	-11019
▁Joofirde	-11020
▁Kaarewol	-11021
▁Vérifier	-11022
▁affichée	-11023
▁bancaire	-11024
▁conserve	-11025
▁contenir	-11026
▁docteurs	-11027
▁détourne	-11028
▁feuilles	-11029
▁gollataa	-11030
▁individu	-11031
▁jamɗugol	-11032
▁jetèrent	-11033
▁jokkugol	-11034
▁joopiima	-11035
▁kumpital	-11036
▁laaɓunde	-11037
▁malformé	-11038
▁nawnaare	-11039
▁njeñtudi	-11040
▁orgueill	-11041
▁ouvrante	-11042
▁parfaite	-11043
▁richesse	-11044
▁wahayini	-11045
▁wayleede	-11046
▁wirniiɗi	-11047
▁wonnduɓe	-11048
▁yiylaade	-11049
▁ɗaɓɓugol	-11050
▁ɲaawoowo	-11051
impression	-11052
▁Kabaruuji	-11053
▁accompagn	-11054
▁autrement	-11055
▁certitude	-11056
▁cherchant	-11057
▁croyantes	-11058
▁dangereux	-11059
▁danndaaɗe	-11060
▁débogueur	-11061
▁faandaare	-11062
▁ignorants	-11063
▁manifesté	-11064
▁mbullaari	-11065
▁obsolètes	-11066
▁orphelins	-11067
▁permettra	-11068
▁siifannde	-11069
▁supprimez	-11070
▁vaisseaux	-11071
▁woondoore	-11072
▁étrangers	-11073
▁ƴeewteede	-11074
▁Actualiser	-11075
▁Protection	-11076
▁Wallitooɓe	-11077
▁fonctionne	-11078
▁kuutoragol	-11079
▁miɲɲiraawo	-11080
▁programmes	-11081
▁propriétés	-11082
▁précédente	-11083
▁recommande	-11084
▁recommandé	-11085
▁traitaient	-11086
▁Binnditagol	-11087
▁consolation	-11088
▁directement	-11089
▁entreprises	-11090
▁nanngitogol	-11091
▁personnelle	-11092
▁prédication	-11093
▁subsistance	-11094
▁traductions	-11095
▁winnditaade	-11096
▁immintineede	-11097
▁intelligence	-11098
▁nokkuɗineede	-11099
▁Sacrificateur	-11100
▁Enregistrement	-11101
▁administrateur	-11102
▁désinstallation	-11103
($	-11104
):	-11105
-8	-11106
CD	-11107
Es	-11108
He	-11109
LL	-11110
aü	-11111
ef	-11112
gt	-11113
of	-11114
ua	-11115
Ɓe	-11116
▁]	-11117
.50	-11118
And	-11119
Hum	-11120
Inc	-11121
Taw	-11122
URI	-11123
Url	-11124
Yee	-11125
dre	-11126
ena	-11127
ggo	-11128
ilé	-11129
jju	-11130
lli	-11131
lés	-11132
oli	-11133
oue	-11134
ses	-11135
tef	-11136
uka	-11137
ust	-11138
waa	-11139
ñol	-11140
▁90	-11141
▁Aa	-11142
▁Af	-11143
▁Ki	-11144
▁Lu	-11145
▁aw	-11146
▁bi	-11147
▁iP	-11148
▁mâ	-11149
.509	-11150
ATET	-11151
Bone	-11152
Data	-11153
alaa	-11154
arii	-11155
exam	-11156
hono	-11157
idaa	-11158
imme	-11159
iner	-11160
iral	-11161
kadi	-11162
loto	-11163
olie	-11164
ooba	-11165
oosi	-11166
oyon	-11167
quot	-11168
rest	-11169
tact	-11170
tien	-11171
tire	-11172
tori	-11173
ules	-11174
umes	-11175
uyɓe	-11176
çais	-11177
érés	-11178
ûmes	-11179
ûtez	-11180
ɗɗii	-11181
▁!".	-11182
▁#1;	-11183
▁Gay	-11184
▁Hey	-11185
▁Ish	-11186
▁Nor	-11187
▁SDP	-11188
▁Saa	-11189
▁Sii	-11190
▁Sok	-11191
▁Sol	-11192
▁Sud	-11193
▁Suɓ	-11194
▁Ter	-11195
▁Tol	-11196
▁Yiɗ	-11197
▁ber	-11198
▁bur	-11199
▁egg	-11200
▁eng	-11201
▁fuu	-11202
▁ger	-11203
▁get	-11204
▁hak	-11205
▁kab	-11206
▁law	-11207
▁nok	-11208
▁not	-11209
▁pod	-11210
▁ran	-11211
▁rin	-11212
▁rou	-11213
▁tok	-11214
▁toŋ	-11215
▁woy	-11216
▁yir	-11217
▁Ɓat	-11218
▁Ɗin	-11219
Baaba	-11220
Hiɗon	-11221
Image	-11222
Votre	-11223
Yahee	-11224
arche	-11225
assit	-11226
bugol	-11227
chées	-11228
ended	-11229
endur	-11230
entif	-11231
estes	-11232
huile	-11233
input	-11234
itent	-11235
ières	-11236
kkore	-11237
liers	-11238
lisab	-11239
maaji	-11240
nungo	-11241
occup	-11242
ommer	-11243
ondez	-11244
onnes	-11245
rages	-11246
tiiɗe	-11247
ttudi	-11248
uudiy	-11249
uurno	-11250
wrong	-11251
yaaɓe	-11252
ylawu	-11253
yoosi	-11254
écria	-11255
époux	-11256
▁Bayy	-11257
▁Data	-11258
▁Enen	-11259
▁Hono	-11260
▁Hool	-11261
▁Laam	-11262
▁Même	-11263
▁Resp	-11264
▁Tooñ	-11265
▁Winn	-11266
▁allé	-11267
▁arra	-11268
▁ceŋe	-11269
▁ciif	-11270
▁daɗn	-11271
▁dise	-11272
▁exac	-11273
▁falj	-11274
▁flex	-11275
▁gaɲo	-11276
▁géné	-11277
▁hank	-11278
▁hebl	-11279
▁hibb	-11280
▁jaas	-11281
▁joof	-11282
▁kaal	-11283
▁maud	-11284
▁muus	-11285
▁muɲɲ	-11286
▁nuée	-11287
▁offr	-11288
▁pile	-11289
▁qirr	-11290
▁rewu	-11291
▁ruuh	-11292
▁sert	-11293
▁siyn	-11294
▁soci	-11295
▁sugg	-11296
▁toit	-11297
▁vaut	-11298
▁wuro	-11299
▁year	-11300
▁îles	-11301
▁ñinn	-11302
Window	-11303
ailles	-11304
akariy	-11305
anaaki	-11306
araawu	-11307
argile	-11308
avance	-11309
ayngol	-11310
devant	-11311
eautés	-11312
envoie	-11313
height	-11314
iroowo	-11315
iyuusu	-11316
leggal	-11317
ppitte	-11318
préhen	-11319
ptible	-11320
tended	-11321
ueille	-11322
ɗungol	-11323
▁Astef	-11324
▁Bajjo	-11325
▁Balɗe	-11326
▁Bayti	-11327
▁DATET	-11328
▁Damas	-11329
▁Dites	-11330
▁Envoi	-11331
▁Forma	-11332
▁Goomu	-11333
▁Hiɗen	-11334
▁Jonas	-11335
▁Kelle	-11336
▁Mawɗo	-11337
▁Muham	-11338
▁Njaru	-11339
▁Parmi	-11340
▁Pâque	-11341
▁Tawtu	-11342
▁Viens	-11343
▁Yuurn	-11344
▁bugii	-11345
▁bâton	-11346
▁conçu	-11347
▁dande	-11348
▁dirig	-11349
▁duumi	-11350
▁encod	-11351
▁extra	-11352
▁fabri	-11353
▁fewni	-11354
▁fonti	-11355
▁front	-11356
▁goote	-11357
▁hawri	-11358
▁hebil	-11359
▁hendi	-11360
▁hoyre	-11361
▁jaŋte	-11362
▁jojji	-11363
▁juume	-11364
▁karah	-11365
▁kayre	-11366
▁kulle	-11367
▁ladde	-11368
▁lésés	-11369
▁makki	-11370
▁minim	-11371
▁month	-11372
▁monté	-11373
▁médis	-11374
▁oppos	-11375
▁prime	-11376
▁rende	-11377
▁seŋre	-11378
▁sunna	-11379
▁suuɗi	-11380
▁sœurs	-11381
▁toode	-11382
▁toɓɓe	-11383
▁triom	-11384
▁waɗoy	-11385
▁yeɗaa	-11386
▁yoɓit	-11387
▁yurme	-11388
▁ñaame	-11389
▁ƴetta	-11390
▁ƴoyre	-11391
Element	-11392
Heroodu	-11393
Malheur	-11394
Mozilla	-11395
Windows	-11396
ankeeji	-11397
antooɓe	-11398
arrière	-11399
chement	-11400
edition	-11401
iilanɗe	-11402
illeurs	-11403
inkooɓe	-11404
ondiree	-11405
onnante	-11406
pported	-11407
tanaaki	-11408
ulation	-11409
univers	-11410
warning	-11411
▁Autres	-11412
▁Binndi	-11413
▁Boowal	-11414
▁Donnez	-11415
▁Efeesi	-11416
▁Gaawte	-11417
▁Huunde	-11418
▁Israël	-11419
▁Lequel	-11420
▁Onglet	-11421
▁Recomm	-11422
▁Safari	-11423
▁Sakket	-11424
▁altern	-11425
▁anditi	-11426
▁anndee	-11427
▁annulé	-11428
▁armées	-11429
▁discut	-11430
▁dispar	-11431
▁divine	-11432
▁double	-11433
▁décidé	-11434
▁déclen	-11435
▁décret	-11436
▁embere	-11437
▁fitina	-11438
▁hawrii	-11439
▁haɗata	-11440
▁humpit	-11441
▁hurmit	-11442
▁jaltin	-11443
▁jardin	-11444
▁jetant	-11445
▁koyɗol	-11446
▁laamɗo	-11447
▁larmes	-11448
▁maayɓe	-11449
▁maaɗun	-11450
▁maggii	-11451
▁moƴƴii	-11452
▁offens	-11453
▁peeñcu	-11454
▁pensez	-11455
▁perdra	-11456
▁pourvu	-11457
▁privés	-11458
▁rappro	-11459
▁rendit	-11460
▁résolu	-11461
▁savait	-11462
▁sokola	-11463
▁sutura	-11464
▁telles	-11465
▁termes	-11466
▁traces	-11467
▁trente	-11468
▁triste	-11469
▁vidéos	-11470
▁waalii	-11471
▁weltii	-11472
▁werlii	-11473
▁wowlee	-11474
▁yahata	-11475
▁ƴeewnd	-11476
Listener	-11477
akariyaa	-11478
histoire	-11479
▁Combien	-11480
▁Cookies	-11481
▁Damaasi	-11482
▁Demeure	-11483
▁Edition	-11484
▁Ginorde	-11485
▁Informé	-11486
▁Kaɓirɗi	-11487
▁Laazaru	-11488
▁Pendant	-11489
▁Tigilde	-11490
▁Topirɗe	-11491
▁Yuunusa	-11492
▁activée	-11493
▁annonci	-11494
▁annoora	-11495
▁arrêter	-11496
▁chagrin	-11497
▁chemins	-11498
▁cliquer	-11499
▁confess	-11500
▁convert	-11501
▁courage	-11502
▁dandude	-11503
▁demeura	-11504
▁dispens	-11505
▁doborde	-11506
▁docteur	-11507
▁dowrowe	-11508
▁entende	-11509
▁feeɲani	-11510
▁firooji	-11511
▁gardent	-11512
▁garooje	-11513
▁hebiima	-11514
▁ignorée	-11515
▁innitol	-11516
▁interne	-11517
▁inventé	-11518
▁jamirol	-11519
▁jarrabu	-11520
▁journée	-11521
▁langage	-11522
▁latéral	-11523
▁mosquée	-11524
▁moƴƴuki	-11525
▁ngayngu	-11526
▁observe	-11527
▁plugins	-11528
▁possédé	-11529
▁prirent	-11530
▁profond	-11531
▁regards	-11532
▁remplac	-11533
▁retirer	-11534
▁saɗtuɗe	-11535
▁syncude	-11536
▁tageefo	-11537
▁toraare	-11538
▁tumbere	-11539
▁waɗaaka	-11540
▁workers	-11541
▁wowlata	-11542
▁yaawngo	-11543
▁éprouvé	-11544
▁ɗuuɗuɗe	-11545
▁ɲokondo	-11546
Shortname	-11547
animation	-11548
fxaccount	-11549
prétation	-11550
▁Bakkaatu	-11551
▁DATETIME	-11552
▁Démarrer	-11553
▁Déplacer	-11554
▁Fichiers	-11555
▁Imprimer	-11556
▁Juulirde	-11557
▁Kaariijo	-11558
▁Pardonne	-11559
▁Principe	-11560
▁Security	-11561
▁Zacharie	-11562
▁blâmable	-11563
▁commença	-11564
▁communic	-11565
▁corrompu	-11566
▁faandike	-11567
▁fewnoowo	-11568
▁hasboore	-11569
▁heeranii	-11570
▁hollugol	-11571
▁huccitii	-11572
▁identité	-11573
▁indiquer	-11574
▁jaaɓngal	-11575
▁kattanɗe	-11576
▁lislaamu	-11577
▁ministre	-11578
▁mondiale	-11579
▁ngelooba	-11580
▁occasion	-11581
▁pratique	-11582
▁préférés	-11583
▁requêtes	-11584
▁tabernac	-11585
▁tanƴinii	-11586
▁tawdaaɗo	-11587
▁terminée	-11588
▁tourment	-11589
▁traduire	-11590
▁vertueux	-11591
▁violence	-11592
▁wowlande	-11593
▁yankinan	-11594
▁yeddugol	-11595
▁yejjitii	-11596
▁ɓannguɗe	-11597
SystemTime	-11598
affliction	-11599
algorithme	-11600
esɗitingol	-11601
sahaabaajo	-11602
yottinoowo	-11603
▁Andaraawu	-11604
▁Antiyoosi	-11605
▁Astefaana	-11606
▁Commencez	-11607
▁Finndeeji	-11608
▁Sanhédrin	-11609
▁assemblés	-11610
▁dannditol	-11611
▁demeurent	-11612
▁dépensent	-11613
▁fermement	-11614
▁graphique	-11615
▁immintini	-11616
▁informera	-11617
▁messagers	-11618
▁moquaient	-11619
▁nanngitol	-11620
▁pardonner	-11621
▁réception	-11622
▁rémission	-11623
▁travaille	-11624
▁utilisées	-11625
▁vignerons	-11626
▁yoɓetaake	-11627
initialiser	-11628
▁exceptions	-11629
▁incorrecte	-11630
▁junuubanke	-11631
▁maamiraaɓe	-11632
▁mottondiri	-11633
▁nombreuses	-11634
▁prosternés	-11635
▁raisonnent	-11636
▁rapidement	-11637
▁temporaire	-11638
▁traitement	-11639
▁verrouillé	-11640
▁Screenshots	-11641
▁Suppression	-11642
▁exhortation	-11643
▁gollaynoɗon	-11644
▁injustement	-11645
▁navigateurs	-11646
▁remplissage	-11647
brandFullName	-11648
▁Bibliothèque	-11649
▁Synchronisez	-11650
▁personnalisé	-11651
▁présentèrent	-11652
clientShortname	-11653
wrongSystemTime	-11654
▁miséricordieux	-11655
);	-11656
1;	-11657
;?	-11658
Au	-11659
CL	-11660
SI	-11661
UL	-11662
bé	-11663
kn	-11664
nD	-11665
#11	-11666
Num	-11667
Yal	-11668
aüm	-11669
ccu	-11670
dat	-11671
eje	-11672
ied	-11673
inf	-11674
iés	-11675
kol	-11676
low	-11677
pha	-11678
rie	-11679
set	-11680
src	-11681
tar	-11682
unu	-11683
upp	-11684
yme	-11685
yol	-11686
âte	-11687
écl	-11688
élo	-11689
Ɗun	-11690
▁&#	-11691
▁18	-11692
▁36	-11693
▁:"	-11694
▁AA	-11695
▁ES	-11696
▁IP	-11697
▁KB	-11698
▁gê	-11699
▁lé	-11700
▁px	-11701
▁pè	-11702
▁ul	-11703
▁ya	-11704
▁él	-11705
Immo	-11706
aadu	-11707
accu	-11708
ader	-11709
arer	-11710
ayɗe	-11711
bran	-11712
cale	-11713
comm	-11714
cres	-11715
empê	-11716
eñto	-11717
iran	-11718
isii	-11719
itin	-11720
itle	-11721
liez	-11722
maru	-11723
oche	-11724
onnu	-11725
oyaa	-11726
pass	-11727
pour	-11728
rais	-11729
tito	-11730
unge	-11731
uuna	-11732
wota	-11733
ébre	-11734
éens	-11735
épée	-11736
▁#11	-11737
▁Col	-11738
▁Eux	-11739
▁Eɓɓ	-11740
▁Fal	-11741
▁Faw	-11742
▁Fow	-11743
▁Gas	-11744
▁Ham	-11745
▁Huu	-11746
▁Mah	-11747
▁Ram	-11748
▁Tok	-11749
▁Yoɓ	-11750
▁aie	-11751
▁cot	-11752
▁doŋ	-11753
▁foy	-11754
▁ful	-11755
▁fum	-11756
▁heñ	-11757
▁ine	-11758
▁mik	-11759
▁mor	-11760
▁oon	-11761
▁orn	-11762
▁pou	-11763
▁soɓ	-11764
▁tir	-11765
▁tiɗ	-11766
▁ugg	-11767
▁vil	-11768
▁waa	-11769
▁woŋ	-11770
▁Ɓoo	-11771
▁Ɗis	-11772
▁ɗaa	-11773
Cette	-11774
Hinaa	-11775
aangu	-11776
about	-11777
annge	-11778
aynge	-11779
céens	-11780
daaɗe	-11781
diiɗi	-11782
emblé	-11783
emmbe	-11784
eniez	-11785
horte	-11786
ilote	-11787
indii	-11788
intég	-11789
irana	-11790
iriez	-11791
langu	-11792
magol	-11793
oowre	-11794
orgal	-11795
orndi	-11796
ounts	-11797
raste	-11798
ruɗon	-11799
surez	-11800
tayno	-11801
terne	-11802
teste	-11803
tiend	-11804
timis	-11805
trodu	-11806
venus	-11807
wooji	-11808
yngal	-11809
▁Aadi	-11810
▁Béni	-11811
▁Dand	-11812
▁Fire	-11813
▁Hunn	-11814
▁Indi	-11815
▁Matt	-11816
▁Neem	-11817
▁Open	-11818
▁Port	-11819
▁Sent	-11820
▁Souv	-11821
▁Woni	-11822
▁Yeru	-11823
▁Yiɗi	-11824
▁aadi	-11825
▁adop	-11826
▁ango	-11827
▁aper	-11828
▁brig	-11829
▁béné	-11830
▁chas	-11831
▁chau	-11832
▁cout	-11833
▁cris	-11834
▁daak	-11835
▁deen	-11836
▁deni	-11837
▁dimo	-11838
▁donk	-11839
▁extr	-11840
▁fegg	-11841
▁fleu	-11842
▁fuun	-11843
▁gain	-11844
▁guri	-11845
▁hawj	-11846
▁hunc	-11847
▁hâte	-11848
▁inqu	-11849
▁itta	-11850
▁jaɓe	-11851
▁kisn	-11852
▁minu	-11853
▁outr	-11854
▁pent	-11855
▁pied	-11856
▁prié	-11857
▁pure	-11858
▁ramè	-11859
▁rond	-11860
▁saaƴ	-11861
▁saff	-11862
▁sara	-11863
▁sood	-11864
▁soɓe	-11865
▁suit	-11866
▁suus	-11867
▁sûre	-11868
▁sûrs	-11869
▁taab	-11870
▁vite	-11871
▁vuln	-11872
▁vêtu	-11873
▁yari	-11874
▁yool	-11875
▁zone	-11876
▁écri	-11877
▁ɓill	-11878
aakara	-11879
aduuna	-11880
asaara	-11881
atives	-11882
avatar	-11883
blique	-11884
ernaüm	-11885
estion	-11886
ingler	-11887
inngol	-11888
itorɗe	-11889
jeende	-11890
leendi	-11891
ngallo	-11892
obscur	-11893
oyngol	-11894
screen	-11895
taandu	-11896
ulsion	-11897
vision	-11898
ƴƴanɗe	-11899
▁Barre	-11900
▁Dosol	-11901
▁Elles	-11902
▁Gorko	-11903
▁Innit	-11904
▁Peuls	-11905
▁Probl	-11906
▁Samba	-11907
▁Silas	-11908
▁Telem	-11909
▁Thora	-11910
▁Umaru	-11911
▁Venez	-11912
▁Wahay	-11913
▁Yetto	-11914
▁abada	-11915
▁actif	-11916
▁bimbi	-11917
▁chame	-11918
▁chefs	-11919
▁convi	-11920
▁copie	-11921
▁cycle	-11922
▁doule	-11923
▁désav	-11924
▁effic	-11925
▁ewnoo	-11926
▁faala	-11927
▁faati	-11928
▁feeɲi	-11929
▁feras	-11930
▁gardé	-11931
▁hanno	-11932
▁hokku	-11933
▁julɓe	-11934
▁keeri	-11935
▁lutte	-11936
▁malin	-11937
▁mères	-11938
▁mérit	-11939
▁nodde	-11940
▁okkaa	-11941
▁peule	-11942
▁priez	-11943
▁renié	-11944
▁rewde	-11945
▁révol	-11946
▁sariy	-11947
▁sarɗi	-11948
▁siift	-11949
▁trace	-11950
▁veuve	-11951
▁voies	-11952
▁watta	-11953
▁waɗee	-11954
▁wonno	-11955
▁wuyɓe	-11956
▁yaltu	-11957
▁Ñeeño	-11958
▁écris	-11959
▁égaré	-11960
▁Ŋeñto	-11961
▁Ɓanng	-11962
▁ɗaɓɓi	-11963
Cliquez	-11964
Humpito	-11965
allalal	-11966
chaient	-11967
demment	-11968
endance	-11969
example	-11970
exemple	-11971
iration	-11972
onglets	-11973
tandard	-11974
tention	-11975
uurnire	-11976
▁Cellal	-11977
▁Client	-11978
▁Contrô	-11979
▁Hollit	-11980
▁Isaaya	-11981
▁Peewal	-11982
▁Profil	-11983
▁Sammba	-11984
▁abbere	-11985
▁achevé	-11986
▁arrêté	-11987
▁cellal	-11988
▁connus	-11989
▁copier	-11990
▁couché	-11991
▁craind	-11992
▁danger	-11993
▁dannde	-11994
▁devint	-11995
▁devons	-11996
▁dokkol	-11997
▁dongal	-11998
▁donnés	-11999
▁dragon	-12000
▁encour	-12001
▁entrée	-12002
▁fensit	-12003
▁forums	-12004
▁gagner	-12005
▁guérit	-12006
▁hawroy	-12007
▁heewde	-12008
▁heɓira	-12009
▁humili	-12010
▁ingrat	-12011
▁jaggit	-12012
▁janngo	-12013
▁juulde	-12014
▁kartal	-12015
▁limite	-12016
▁maggel	-12017
▁majjam	-12018
▁mawnin	-12019
▁miijii	-12020
▁médias	-12021
▁naamno	-12022
▁noddii	-12023
▁noddit	-12024
▁noogay	-12025
▁paraly	-12026
▁pilote	-12027
▁planté	-12028
▁prompt	-12029
▁quoiqu	-12030
▁requis	-12031
▁rester	-12032
▁saurez	-12033
▁saviez	-12034
▁sawndo	-12035
▁serais	-12036
▁siècle	-12037
▁suivit	-12038
▁supéri	-12039
▁thèmes	-12040
▁tranqu	-12041
▁transf	-12042
▁twitte	-12043
▁vaches	-12044
▁venues	-12045
▁waklit	-12046
▁waɗnoo	-12047
▁weelaa	-12048
▁wonata	-12049
▁yiɗuɓe	-12050
▁Éphèse	-12051
▁écoute	-12052
▁ɓoggol	-12053
Gereekiy	-12054
Yahuudiy	-12055
adultère	-12056
auraient	-12057
language	-12058
phérique	-12059
uurnirol	-12060
▁Cliquer	-12061
▁Envoyez	-12062
▁Issaaqa	-12063
▁Louange	-12064
▁Sabaabu	-12065
▁Sachant	-12066
▁Serveur	-12067
▁aljanna	-12068
▁apparut	-12069
▁brigand	-12070
▁chevaux	-12071
▁content	-12072
▁couples	-12073
▁donnant	-12074
▁duulere	-12075
▁désigné	-12076
▁détruit	-12077
▁faamuɓe	-12078
▁fournir	-12079
▁groupes	-12080
▁guillem	-12081
▁informé	-12082
▁jalnori	-12083
▁jamaaji	-12084
▁jeyaaka	-12085
▁karahan	-12086
▁korndol	-12087
▁maximum	-12088
▁moteurs	-12089
▁méchanc	-12090
▁naatude	-12091
▁nawnuɓe	-12092
▁parlent	-12093
▁presque	-12094
▁publier	-12095
▁requise	-12096
▁réduire	-12097
▁réservé	-12098
▁silence	-12099
▁souffle	-12100
▁support	-12101
▁surtout	-12102
▁syntaxe	-12103
▁talanji	-12104
▁terminé	-12105
▁tinndin	-12106
▁tombent	-12107
▁tooñude	-12108
▁visiter	-12109
▁waawuɗo	-12110
▁waɗataa	-12111
▁waɗirde	-12112
▁waɗoowo	-12113
▁wonaani	-12114
▁yiɗaaɗo	-12115
▁échappé	-12116
▁éloigné	-12117
▁ɓadaade	-12118
actualité	-12119
entendent	-12120
uusiyaaɓe	-12121
▁Accepter	-12122
▁Haananaa	-12123
▁Traduire	-12124
▁Vraiment	-12125
▁Waktuuji	-12126
▁Yerondir	-12127
▁Yettoore	-12128
▁accueill	-12129
▁actuelle	-12130
▁adultère	-12131
▁approche	-12132
▁ballital	-12133
▁bonnugol	-12134
▁concerne	-12135
▁contenus	-12136
▁dartorde	-12137
▁empêcher	-12138
▁enseigne	-12139
▁enseigné	-12140
▁fardeaux	-12141
▁felnaaki	-12142
▁fermante	-12143
▁golleeji	-12144
▁haanunoo	-12145
▁hoynooje	-12146
▁héritage	-12147
▁jiiɓaare	-12148
▁jippinii	-12149
▁lulnagol	-12150
▁luttooɓe	-12151
▁maladies	-12152
▁mantorde	-12153
▁milliers	-12154
▁moissonn	-12155
▁morceaux	-12156
▁poitrine	-12157
▁pourriez	-12158
▁recueill	-12159
▁retourne	-12160
▁rewaynoo	-12161
▁ruuhuuji	-12162
▁résoudre	-12163
▁solution	-12164
▁tablette	-12165
▁taƴtagol	-12166
▁tuugorde	-12167
▁variable	-12168
▁wonaande	-12169
▁yahdaani	-12170
▁Ɓeydital	-12171
▁ƴellitde	-12172
▁ɗoftaare	-12173
Joomiraaɗo	-12174
admiration	-12175
▁Banngogol	-12176
▁Capernaüm	-12177
▁Installez	-12178
▁Jaaɓnirɗe	-12179
▁Jahdingol	-12180
▁Magaduuna	-12181
▁Rejoignez	-12182
▁Tonngoode	-12183
▁affection	-12184
▁attendant	-12185
▁bancaires	-12186
▁comprenez	-12187
▁contribué	-12188
▁courriels	-12189
▁documents	-12190
▁détourner	-12191
▁envoyâmes	-12192
▁fournaise	-12193
▁funnaange	-12194
▁gomɗingol	-12195
▁heɓotaako	-12196
▁mangèrent	-12197
▁regardant	-12198
▁renforcée	-12199
▁reprendre	-12200
▁répondent	-12201
▁répulsion	-12202
▁souillure	-12203
▁timmungal	-12204
▁torndeeji	-12205
▁toutefois	-12206
▁télémétri	-12207
▁waɗitiiɓe	-12208
screenshots	-12209
▁Kuutoragol	-12210
▁Ordinateer	-12211
▁comprendre	-12212
▁envoyèrent	-12213
▁glorifient	-12214
▁haqqilooɓe	-12215
▁iimeeluuji	-12216
▁ndarndagol	-12217
▁principale	-12218
▁puissances	-12219
▁rassemblés	-12220
▁recherches	-12221
▁recherchez	-12222
▁rencontrée	-12223
▁tabernacle	-12224
▁territoire	-12225
▁disparaître	-12226
▁hattantaake	-12227
▁interrompue	-12228
▁obligatoire	-12229
▁seedamfaaje	-12230
▁tammbitaaka	-12231
▁travaillent	-12232
▁ɗaɓɓitaande	-12233
▁comportement	-12234
▁précédemment	-12235
▁sélectionnés	-12236
Inconnaissable	-12237
▁effectivement	-12238
▁mawnintinaare	-12239
";	-12240
02	-12241
40	-12242
57	-12243
64	-12244
AY	-12245
As	-12246
MO	-12247
PU	-12248
kb	-12249
ym	-12250
▁_	-12251
().	-12252
192	-12253
?</	-12254
Bap	-12255
CLI	-12256
Des	-12257
Mom	-12258
Mus	-12259
ado	-12260
chr	-12261
dec	-12262
dim	-12263
dou	-12264
eli	-12265
fix	-12266
fof	-12267
fol	-12268
gin	-12269
ish	-12270
lob	-12271
mii	-12272
nel	-12273
ona	-12274
oyo	-12275
oɗɗ	-12276
pes	-12277
ung	-12278
usé	-12279
uud	-12280
wan	-12281
yaa	-12282
ɲol	-12283
▁%%	-12284
▁@-	-12285
▁Cl	-12286
▁Dj	-12287
▁Oh	-12288
▁RG	-12289
▁Sc	-12290
▁mê	-12291
Aree	-12292
Bapt	-12293
CDSA	-12294
ager	-12295
agge	-12296
anah	-12297
anmo	-12298
ards	-12299
aria	-12300
aube	-12301
aybu	-12302
bell	-12303
blis	-12304
dala	-12305
ecte	-12306
enue	-12307
enɗe	-12308
erte	-12309
ewal	-12310
exte	-12311
guer	-12312
guɗo	-12313
ihun	-12314
ingi	-12315
itan	-12316
llic	-12317
mart	-12318
médi	-12319
ndii	-12320
ndin	-12321
ngam	-12322
omas	-12323
ompe	-12324
open	-12325
oyoo	-12326
path	-12327
rera	-12328
spec	-12329
ugin	-12330
urop	-12331
usez	-12332
édée	-12333
ôtés	-12334
ɓike	-12335
ɗina	-12336
▁10%	-12337
▁?</	-12338
▁Aff	-12339
▁Alt	-12340
▁Boo	-12341
▁Diw	-12342
▁FTP	-12343
▁Gad	-12344
▁Ger	-12345
▁HAR	-12346
▁ICE	-12347
▁Isk	-12348
▁Jap	-12349
▁Kul	-12350
▁Lom	-12351
▁Sub	-12352
▁Woɗ	-12353
▁Yee	-12354
▁aaƴ	-12355
▁ciy	-12356
▁day	-12357
▁dor	-12358
▁dot	-12359
▁enj	-12360
▁eɓe	-12361
▁fiɓ	-12362
▁gab	-12363
▁jum	-12364
▁sir	-12365
▁tii	-12366
▁tos	-12367
▁ñaw	-12368
▁Ɗam	-12369
▁Ɗen	-12370
▁Ɗoo	-12371
0;;</	-12372
CLICK	-12373
Email	-12374
Jooma	-12375
Julde	-12376
Notre	-12377
Sirii	-12378
abled	-12379
anges	-12380
arriv	-12381
bbunh	-12382
daaɗi	-12383
duire	-12384
emmen	-12385
ender	-12386
envoy	-12387
eriez	-12388
explo	-12389
faaji	-12390
herbe	-12391
ileer	-12392
menti	-12393
ondin	-12394
onngo	-12395
ontii	-12396
oppos	-12397
param	-12398
reeta	-12399
riers	-12400
riiji	-12401
state	-12402
style	-12403
taaki	-12404
taani	-12405
teeɗe	-12406
tenez	-12407
tière	-12408
tooji	-12409
tueux	-12410
tégie	-12411
ureté	-12412
épous	-12413
étern	-12414
ɗaaki	-12415
▁Accu	-12416
▁Addu	-12417
▁Huɓɓ	-12418
▁Lewi	-12419
▁Mari	-12420
▁Math	-12421
▁Nate	-12422
▁Rien	-12423
▁Site	-12424
▁Tint	-12425
▁Vers	-12426
▁adap	-12427
▁agit	-12428
▁arda	-12429
▁bais	-12430
▁bark	-12431
▁biro	-12432
▁conj	-12433
▁conç	-12434
▁cuuɗ	-12435
▁espé	-12436
▁faay	-12437
▁gaad	-12438
▁galo	-12439
▁hait	-12440
▁hiwr	-12441
▁jaɓi	-12442
▁jure	-12443
▁juri	-12444
▁kewe	-12445
▁lait	-12446
▁liɓi	-12447
▁mojo	-12448
▁pane	-12449
▁pank	-12450
▁plan	-12451
▁péné	-12452
▁raff	-12453
▁soom	-12454
▁sooƴ	-12455
▁tamb	-12456
▁tekk	-12457
▁tiré	-12458
▁veng	-12459
▁well	-12460
▁werl	-12461
▁wint	-12462
▁yang	-12463
▁yeƴƴ	-12464
▁yiɗu	-12465
▁Ñipp	-12466
▁ɓoyl	-12467
▁ɓull	-12468
Access	-12469
Number	-12470
Reenee	-12471
addons	-12472
ariiyu	-12473
caango	-12474
chrone	-12475
courez	-12476
crivez	-12477
inline	-12478
inspec	-12479
intino	-12480
ireedi	-12481
irimmi	-12482
itoore	-12483
ources	-12484
rashed	-12485
tation	-12486
tative	-12487
ternel	-12488
tienne	-12489
ulaajo	-12490
ximité	-12491
▁André	-12492
▁Choix	-12493
▁ECDSA	-12494
▁Focus	-12495
▁Jakka	-12496
▁Jaloo	-12497
▁Jouer	-12498
▁Large	-12499
▁Marsh	-12500
▁Masiŋ	-12501
▁Mises	-12502
▁Proxy	-12503
▁Seuls	-12504
▁Sites	-12505
▁Sujet	-12506
▁Sécur	-12507
▁Temmb	-12508
▁Texte	-12509
▁Trans	-12510
▁Waktu	-12511
▁XPath	-12512
▁accep	-12513
▁adadu	-12514
▁annda	-12515
▁armes	-12516
▁aroyi	-12517
▁arsik	-12518
▁baiss	-12519
▁bajjo	-12520
▁bannd	-12521
▁baɗɗo	-12522
▁binde	-12523
▁calom	-12524
▁calɗi	-12525
▁carwo	-12526
▁cessé	-12527
▁const	-12528
▁créez	-12529
▁côtés	-12530
▁dagii	-12531
▁dissi	-12532
▁faama	-12533
▁fanaa	-12534
▁fouet	-12535
▁fuɗɗo	-12536
▁gannd	-12537
▁geddi	-12538
▁gomɗi	-12539
▁goopi	-12540
▁heedo	-12541
▁hisde	-12542
▁hitti	-12543
▁hulii	-12544
▁imput	-12545
▁janta	-12546
▁jooma	-12547
▁koɗol	-12548
▁laver	-12549
▁lesdi	-12550
▁leɲol	-12551
▁loowa	-12552
▁maggo	-12553
▁mbabb	-12554
▁mbayl	-12555
▁mbaɗi	-12556
▁mooft	-12557
▁mooɓa	-12558
▁natto	-12559
▁nelda	-12560
▁nelde	-12561
▁ngadd	-12562
▁noces	-12563
▁outre	-12564
▁ouvre	-12565
▁piile	-12566
▁provo	-12567
▁prêts	-12568
▁pèler	-12569
▁rangs	-12570
▁reent	-12571
▁ronnd	-12572
▁route	-12573
▁répit	-12574
▁salue	-12575
▁sinno	-12576
▁sonaa	-12577
▁surpr	-12578
▁surve	-12579
▁tasak	-12580
▁tenir	-12581
▁teppe	-12582
▁tiens	-12583
▁total	-12584
▁tweet	-12585
▁veill	-12586
▁volon	-12587
▁vraie	-12588
▁waajo	-12589
▁waylu	-12590
▁wondu	-12591
▁wowlu	-12592
▁wurɓe	-12593
▁yedda	-12594
▁yiɗii	-12595
▁équit	-12596
▁équiv	-12597
▁Ɗaccu	-12598
▁ɓanti	-12599
▁ɗofto	-12600
▁ɲawnd	-12601
▁ɲawɓe	-12602
anmoins	-12603
antaako	-12604
aurions	-12605
cateurs	-12606
ditionn	-12607
enseign	-12608
formatD	-12609
indiree	-12610
ingiwii	-12611
intinii	-12612
ondooje	-12613
restore	-12614
rétiens	-12615
ériment	-12616
▁Crypto	-12617
▁Daɗndu	-12618
▁Envoie	-12619
▁Festus	-12620
▁Fiɓnde	-12621
▁Jeewte	-12622
▁Moƴƴii	-12623
▁Passer	-12624
▁Prends	-12625
▁Termin	-12626
▁Thomas	-12627
▁WebRTC	-12628
▁Woorii	-12629
▁abadaa	-12630
▁actuel	-12631
▁adiiɓe	-12632
▁adorer	-12633
▁cartes	-12634
▁chande	-12635
▁cheval	-12636
▁danndi	-12637
▁daɗndi	-12638
▁dedans	-12639
▁dirons	-12640
▁disiez	-12641
▁diverg	-12642
▁dépend	-12643
▁désirs	-12644
▁entrez	-12645
▁espace	-12646
▁espèce	-12647
▁essayé	-12648
▁fourni	-12649
▁gollid	-12650
▁grille	-12651
▁habbii	-12652
▁harmin	-12653
▁heewii	-12654
▁hookii	-12655
▁iframe	-12656
▁ittiri	-12657
▁jalkit	-12658
▁janani	-12659
▁joowre	-12660
▁kammuy	-12661
▁keɓgol	-12662
▁kodgol	-12663
▁libres	-12664
▁licite	-12665
▁loopal	-12666
▁mbuuɗi	-12667
▁moofta	-12668
▁naatay	-12669
▁ngawri	-12670
▁ngujjo	-12671
▁niɓɓii	-12672
▁octets	-12673
▁passés	-12674
▁persév	-12675
▁police	-12676
▁reenee	-12677
▁renouv	-12678
▁revien	-12679
▁règles	-12680
▁répudi	-12681
▁sanamu	-12682
▁soucis	-12683
▁tabiti	-12684
▁tourne	-12685
▁veille	-12686
▁veuves	-12687
▁viande	-12688
▁waylii	-12689
▁waɗana	-12690
▁yiɗiri	-12691
▁yurmaa	-12692
▁éloign	-12693
▁émigré	-12694
▁épines	-12695
▁équité	-12696
▁études	-12697
▁ɓurata	-12698
Baptiste	-12699
Juldeere	-12700
ceptions	-12701
héritage	-12702
interrog	-12703
itiingol	-12704
layyorde	-12705
precated	-12706
reviewer	-12707
ribution	-12708
térieure	-12709
éprouver	-12710
▁Ajoutez	-12711
▁Bireedi	-12712
▁Feewuɗo	-12713
▁Laakara	-12714
▁Logagol	-12715
▁Magdala	-12716
▁Ndaaree	-12717
▁Retourn	-12718
▁Woodani	-12719
▁aalaaji	-12720
▁aliment	-12721
▁annduɓe	-12722
▁apporte	-12723
▁associé	-12724
▁capable	-12725
▁choisis	-12726
▁daartol	-12727
▁dommage	-12728
▁donnons	-12729
▁défense	-12730
▁désirez	-12731
▁enjoint	-12732
▁enjoliv	-12733
▁externe	-12734
▁faalkis	-12735
▁hendike	-12736
▁humains	-12737
▁iwrunde	-12738
▁jannude	-12739
▁jaɓataa	-12740
▁kabaaru	-12741
▁laatora	-12742
▁malfait	-12743
▁maudits	-12744
▁meurtre	-12745
▁naatiri	-12746
▁nanaali	-12747
▁passait	-12748
▁poisson	-12749
▁polices	-12750
▁portent	-12751
▁purifie	-12752
▁raconté	-12753
▁ronooɓe	-12754
▁récents	-12755
▁réduite	-12756
▁sellina	-12757
▁tagooje	-12758
▁tiiɗude	-12759
▁tombera	-12760
▁traduit	-12761
▁valeurs	-12762
▁vedette	-12763
▁visitez	-12764
▁voulant	-12765
▁wonanay	-12766
▁woondir	-12767
▁wujjude	-12768
▁yottike	-12769
▁épreuve	-12770
▁établie	-12771
▁Ɓataake	-12772
▁ɓeydana	-12773
▁ɗowooɓe	-12774
avènement	-12775
onditions	-12776
▁Appareil	-12777
▁Baylitte	-12778
▁Baylugol	-12779
▁Dandoowo	-12780
▁Dawirgol	-12781
▁Gollooɓe	-12782
▁Jourdain	-12783
▁Mariyatu	-12784
▁Tiitoore	-12785
▁approuvé	-12786
▁assemblé	-12787
▁attribut	-12788
▁avancées	-12789
▁cliquant	-12790
▁condamné	-12791
▁conduire	-12792
▁couronne	-12793
▁demandez	-12794
▁demandée	-12795
▁droiture	-12796
▁faalaaɓe	-12797
▁fewnataa	-12798
▁gollaade	-12799
▁gollirde	-12800
▁gomɗinta	-12801
▁goowaaɗe	-12802
▁halfinaa	-12803
▁hattanɗo	-12804
▁hooliiɓe	-12805
▁hurminaa	-12806
▁iwrungal	-12807
▁jaaƴorde	-12808
▁jarnugol	-12809
▁jaŋtaama	-12810
▁jippinaa	-12811
▁jokkitde	-12812
▁jooɗiiɓe	-12813
▁keɓtugol	-12814
▁leelaani	-12815
▁magicien	-12816
▁mbileejo	-12817
▁moƴƴinde	-12818
▁naamuuji	-12819
▁noddoton	-12820
▁palmiers	-12821
▁pardonné	-12822
▁produire	-12823
▁préparer	-12824
▁pécheurs	-12825
▁rappelez	-12826
▁réalisée	-12827
▁révoqués	-12828
▁sainteté	-12829
▁seeditoo	-12830
▁souvenez	-12831
▁timmunde	-12832
▁trompeur	-12833
▁trouvera	-12834
▁waajitor	-12835
▁wallooɓe	-12836
▁wowlugol	-12837
▁yillaade	-12838
▁ŋaɲɲaare	-12839
▁ƴantooɓe	-12840
▁ɓeydaade	-12841
▁ɓeydaama	-12842
Allocation	-12843
auparavant	-12844
▁Fournaise	-12845
▁Jamirooje	-12846
▁Timmitere	-12847
▁adoraient	-12848
▁algoritma	-12849
▁effectuer	-12850
▁entrèrent	-12851
▁fortement	-12852
▁goonɗinɓe	-12853
▁incompati	-12854
▁installée	-12855
▁interroge	-12856
▁maakannoo	-12857
▁mawnungal	-12858
▁multiples	-12859
▁nattannde	-12860
▁ndaarugol	-12861
▁plantages	-12862
▁possèdent	-12863
▁pouvaient	-12864
▁proximité	-12865
▁présenter	-12866
▁rassasiés	-12867
▁recharger	-12868
▁ressemble	-12869
▁retrouver	-12870
▁sacrifice	-12871
▁stratégie	-12872
▁supporter	-12873
▁sépulcres	-12874
▁tiiɗungal	-12875
▁tradition	-12876
▁trouverez	-12877
▁voulaient	-12878
▁waajitoto	-12879
▁wuurirgol	-12880
▁yaajeende	-12881
▁échantill	-12882
▁étiquette	-12883
▁Chargement	-12884
▁Discussion	-12885
▁Navigation	-12886
▁Salminanon	-12887
▁Traduction	-12888
▁algorithme	-12889
▁animations	-12890
▁avilissant	-12891
▁bandiraawo	-12892
▁bonnereeji	-12893
▁combattent	-12894
▁deviennent	-12895
▁firtotaako	-12896
▁fodaariiji	-12897
▁heɓtinirde	-12898
▁jarrabuyee	-12899
▁manifestée	-12900
▁townitaare	-12901
▁traitèrent	-12902
▁travailler	-12903
▁wakkilinii	-12904
▁wondunooɓe	-12905
▁yankinaare	-12906
exploitation	-12907
utilisateurs	-12908
▁Sakkitiinde	-12909
▁disposition	-12910
▁orgueilleux	-12911
▁racontèrent	-12912
▁indisponible	-12913
▁ressuscitera	-12914
▁Configuration	-12915
▁junuubankeejo	-12916
▁mawnintiniiɓe	-12917
▁prosternèrent	-12918
▁reconnaissant	-12919
▁réfléchissent	-12920
▁réinitialiser	-12921
▁transgression	-12922
authentification	-12923
'.	-12924
Fu	-12925
HT	-12926
IT	-12927
Ma	-12928
SM	-12929
gé	-12930
mm	-12931
uw	-12932
}:	-12933
▁=	-12934
ISO	-12935
Isc	-12936
OCK	-12937
Voi	-12938
aha	-12939
ary	-12940
bbo	-12941
bug	-12942
dal	-12943
eeŋ	-12944
erc	-12945
ewo	-12946
eût	-12947
gré	-12948
gui	-12949
kal	-12950
kap	-12951
lez	-12952
lim	-12953
map	-12954
mez	-12955
naa	-12956
nam	-12957
nie	-12958
not	-12959
ork	-12960
ory	-12961
own	-12962
pas	-12963
rde	-12964
rew	-12965
sec	-12966
sgu	-12967
tré	-12968
ube	-12969
uel	-12970
ukk	-12971
évé	-12972
ôts	-12973
ɗno	-12974
▁",	-12975
▁Ap	-12976
▁Ci	-12977
▁FA	-12978
▁Nu	-12979
▁Ps	-12980
▁Sp	-12981
▁Sâ	-12982
▁Ve	-12983
▁[{	-12984
▁rê	-12985
▁uj	-12986
▁Ép	-12987
'/>.	-12988
Adam	-12989
aagu	-12990
akke	-12991
anel	-12992
aree	-12993
assi	-12994
auto	-12995
aîne	-12996
aɗol	-12997
core	-12998
erty	-12999
fici	-13000
fied	-13001
fixe	-13002
grés	-13003
ints	-13004
isté	-13005
iver	-13006
iɗum	-13007
jere	-13008
last	-13009
lité	-13010
livi	-13011
mant	-13012
oldu	-13013
ollu	-13014
orie	-13015
otal	-13016
owre	-13017
oyde	-13018
ptez	-13019
pups	-13020
read	-13021
rich	-13022
rité	-13023
roya	-13024
tine	-13025
tora	-13026
uuma	-13027
uɗan	-13028
yeru	-13029
}">{	-13030
▁64-	-13031
▁Baw	-13032
▁Bok	-13033
▁Bun	-13034
▁CRL	-13035
▁Clé	-13036
▁Cos	-13037
▁Cro	-13038
▁Dal	-13039
▁Dut	-13040
▁Hoo	-13041
▁Hor	-13042
▁Inc	-13043
▁Kaf	-13044
▁Kur	-13045
▁Lic	-13046
▁Lâm	-13047
▁Moz	-13048
▁Nee	-13049
▁Okk	-13050
▁Org	-13051
▁Wer	-13052
▁aam	-13053
▁arr	-13054
▁baa	-13055
▁caw	-13056
▁cha	-13057
▁coq	-13058
▁elt	-13059
▁faɗ	-13060
▁haŋ	-13061
▁heɲ	-13062
▁ini	-13063
▁kel	-13064
▁lul	-13065
▁lèv	-13066
▁rer	-13067
▁sor	-13068
▁vir	-13069
▁waw	-13070
▁ŋat	-13071
Aazii	-13072
Islam	-13073
Momtu	-13074
Sinno	-13075
Voici	-13076
Wonaa	-13077
abbas	-13078
abond	-13079
aggal	-13080
ahuum	-13081
allon	-13082
anias	-13083
blime	-13084
breuv	-13085
dayni	-13086
digal	-13087
eendi	-13088
ennes	-13089
enver	-13090
fiant	-13091
finde	-13092
geɗel	-13093
inton	-13094
isser	-13095
meere	-13096
minii	-13097
nommé	-13098
ookar	-13099
order	-13100
oriez	-13101
oubli	-13102
queur	-13103
rippa	-13104
royez	-13105
ssent	-13106
tanɗo	-13107
tatus	-13108
tiers	-13109
tiino	-13110
tiree	-13111
toyay	-13112
tures	-13113
unndu	-13114
ureau	-13115
wiiɲu	-13116
èvent	-13117
ément	-13118
▁Affi	-13119
▁Afri	-13120
▁Daas	-13121
▁Dent	-13122
▁Faam	-13123
▁Geɗe	-13124
▁Labe	-13125
▁Lien	-13126
▁Maak	-13127
▁Natt	-13128
▁Nder	-13129
▁Null	-13130
▁Oups	-13131
▁Péri	-13132
▁Répu	-13133
▁Test	-13134
▁Tite	-13135
▁Trav	-13136
▁Tuug	-13137
▁Wood	-13138
▁Yant	-13139
▁aafe	-13140
▁acca	-13141
▁aimé	-13142
▁astu	-13143
▁bris	-13144
▁bâti	-13145
▁cabb	-13146
▁cell	-13147
▁crut	-13148
▁daas	-13149
▁degg	-13150
▁dite	-13151
▁doge	-13152
▁eaux	-13153
▁foul	-13154
▁haɓi	-13155
▁heyɗ	-13156
▁http	-13157
▁jatt	-13158
▁jent	-13159
▁joge	-13160
▁jukk	-13161
▁kaan	-13162
▁koɗo	-13163
▁lurr	-13164
▁luut	-13165
▁midi	-13166
▁naad	-13167
▁nanu	-13168
▁norm	-13169
▁obéi	-13170
▁perf	-13171
▁ping	-13172
▁rach	-13173
▁rela	-13174
▁rewi	-13175
▁ruug	-13176
▁sarw	-13177
▁seek	-13178
▁sill	-13179
▁tagg	-13180
▁taƴa	-13181
▁tenƴ	-13182
▁term	-13183
▁uddu	-13184
▁waɗe	-13185
▁weli	-13186
▁émis	-13187
▁ñawu	-13188
▁ŋari	-13189
▁Ɓeen	-13190
▁Ƴell	-13191
▁ɓeto	-13192
▁ɗama	-13193
Goûtez	-13194
Iscari	-13195
Yeetee	-13196
anaaɗo	-13197
aniers	-13198
anndee	-13199
anoɗaa	-13200
arrive	-13201
atures	-13202
avions	-13203
enance	-13204
entrée	-13205
espère	-13206
etteur	-13207
ettons	-13208
gnorer	-13209
goritm	-13210
inirii	-13211
itoyii	-13212
oodere	-13213
ptième	-13214
resses	-13215
rèrent	-13216
script	-13217
tirgel	-13218
utions	-13219
volved	-13220
égorie	-13221
▁Adobe	-13222
▁Alyah	-13223
▁Daala	-13224
▁Durée	-13225
▁Faray	-13226
▁Gorol	-13227
▁HTTPS	-13228
▁Jaabo	-13229
▁Janng	-13230
▁Jaŋte	-13231
▁Jokke	-13232
▁Jusqu	-13233
▁Lekki	-13234
▁Lewru	-13235
▁Liste	-13236
▁Maaro	-13237
▁Matth	-13238
▁Meill	-13239
▁Olivi	-13240
▁Rewɓe	-13241
▁Résul	-13242
▁Sifaa	-13243
▁Tawde	-13244
▁Tooma	-13245
▁Toɓɓe	-13246
▁Vider	-13247
▁Woote	-13248
▁Worgo	-13249
▁aafaa	-13250
▁accii	-13251
▁accro	-13252
▁aimez	-13253
▁aimés	-13254
▁ardii	-13255
▁asewe	-13256
▁assur	-13257
▁auras	-13258
▁chute	-13259
▁cilol	-13260
▁couvr	-13261
▁cuɗin	-13262
▁dalil	-13263
▁deedi	-13264
▁dette	-13265
▁dirai	-13266
▁diver	-13267
▁décis	-13268
▁décré	-13269
▁désol	-13270
▁détes	-13271
▁envir	-13272
▁faabo	-13273
▁firde	-13274
▁fiyak	-13275
▁folie	-13276
▁fotti	-13277
▁fumée	-13278
▁gabbe	-13279
▁gérée	-13280
▁hardi	-13281
▁heyri	-13282
▁hoyna	-13283
▁hoɓɓe	-13284
▁hulee	-13285
▁hérit	-13286
▁instr	-13287
▁ittii	-13288
▁jango	-13289
▁jarni	-13290
▁jonna	-13291
▁karam	-13292
▁kesal	-13293
▁kunte	-13294
▁lever	-13295
▁maaro	-13296
▁magni	-13297
▁makka	-13298
▁malii	-13299
▁meemi	-13300
▁merci	-13301
▁merve	-13302
▁mette	-13303
▁miile	-13304
▁momta	-13305
▁momtu	-13306
▁moƴƴa	-13307
▁muuse	-13308
▁muɲal	-13309
▁njaab	-13310
▁nourr	-13311
▁outil	-13312
▁perpé	-13313
▁popup	-13314
▁possi	-13315
▁press	-13316
▁prude	-13317
▁quere	-13318
▁sacré	-13319
▁sceau	-13320
▁sekko	-13321
▁semmb	-13322
▁seŋii	-13323
▁smart	-13324
▁sonki	-13325
▁sujji	-13326
▁tache	-13327
▁taƴii	-13328
▁tedde	-13329
▁tommb	-13330
▁traîn	-13331
▁vache	-13332
▁vaine	-13333
▁verra	-13334
▁votes	-13335
▁vrais	-13336
▁waree	-13337
▁welto	-13338
▁werde	-13339
▁wonah	-13340
▁wuurn	-13341
▁yahde	-13342
▁yanii	-13343
▁yooli	-13344
▁Étiqu	-13345
▁Ñoƴƴu	-13346
▁ñaami	-13347
▁ñalɗi	-13348
▁Ɗemɗe	-13349
▁ƴibbe	-13350
▁ɗooft	-13351
▁ɗuurn	-13352
▁ɲiiƴe	-13353
Seniiɗo	-13354
affaire	-13355
afflige	-13356
appeler	-13357
bellion	-13358
clusion	-13359
current	-13360
enfants	-13361
owrowɓe	-13362
profile	-13363
tiniiɗo	-13364
épreuve	-13365
érateur	-13366
érifiez	-13367
▁Belajo	-13368
▁Bookar	-13369
▁Daaƴtu	-13370
▁Gardez	-13371
▁Ismaël	-13372
▁Joopol	-13373
▁Kafern	-13374
▁Laisse	-13375
▁Leemto	-13376
▁Loowtu	-13377
▁Marthe	-13378
▁Messie	-13379
▁Ndaaru	-13380
▁Njaafo	-13381
▁Paykun	-13382
▁Source	-13383
▁Waklit	-13384
▁abreuv	-13385
▁acciti	-13386
▁actifs	-13387
▁addana	-13388
▁ajoute	-13389
▁alɗuɓe	-13390
▁apparu	-13391
▁appell	-13392
▁aranal	-13393
▁arataa	-13394
▁ardeur	-13395
▁barres	-13396
▁berger	-13397
▁cachez	-13398
▁cemmbe	-13399
▁cinnde	-13400
▁compas	-13401
▁couver	-13402
▁donkin	-13403
▁délivr	-13404
▁embell	-13405
▁engend	-13406
▁espoir	-13407
▁feewde	-13408
▁ferait	-13409
▁fermée	-13410
▁forces	-13411
▁gootel	-13412
▁hanndi	-13413
▁hayrir	-13414
▁hendor	-13415
▁hewtoy	-13416
▁hollii	-13417
▁insuff	-13418
▁ittude	-13419
▁iwruɗe	-13420
▁janane	-13421
▁jokkay	-13422
▁juulɓe	-13423
▁kawtal	-13424
▁keewɗi	-13425
▁keɓtin	-13426
▁kiisol	-13427
▁lammin	-13428
▁lanndo	-13429
▁livrer	-13430
▁lootir	-13431
▁maante	-13432
▁mbabba	-13433
▁menace	-13434
▁moitié	-13435
▁moƴƴaa	-13436
▁nafata	-13437
▁nebban	-13438
▁neenir	-13439
▁neldat	-13440
▁neldii	-13441
▁ngaari	-13442
▁ngonaa	-13443
▁occupé	-13444
▁offrir	-13445
▁pareil	-13446
▁plaire	-13447
▁popups	-13448
▁portez	-13449
▁puisqu	-13450
▁rendus	-13451
▁renier	-13452
▁repris	-13453
▁restre	-13454
▁région	-13455
▁sanctu	-13456
▁sonner	-13457
▁sortie	-13458
▁tawiri	-13459
▁tawnde	-13460
▁tawoyi	-13461
▁taƴiti	-13462
▁tijjaa	-13463
▁timmii	-13464
▁tombée	-13465
▁toucha	-13466
▁tuubii	-13467
▁uddude	-13468
▁utiles	-13469
▁voulut	-13470
▁wattin	-13471
▁yondin	-13472
▁Égypte	-13473
▁Ñawndu	-13474
▁ƴettaa	-13475
▁ƴettii	-13476
▁ɓornii	-13477
▁ɗakkaa	-13478
▁ɗiɗaɓo	-13479
afficher	-13480
aissance	-13481
answerer	-13482
articles	-13483
dayniwol	-13484
habitude	-13485
identité	-13486
iimtorɗe	-13487
iniquité	-13488
inndeere	-13489
meetelol	-13490
position	-13491
rouiller	-13492
ueillant	-13493
ènements	-13494
éternité	-13495
▁Agrippa	-13496
▁Capture	-13497
▁Cinndel	-13498
▁Fuɗɗito	-13499
▁Ishaaqa	-13500
▁Jaaɓtol	-13501
▁Kenorɗe	-13502
▁Lecture	-13503
▁Message	-13504
▁Momtude	-13505
▁Organis	-13506
▁Quelque	-13507
▁Recevez	-13508
▁Samuuda	-13509
▁Toɓɓere	-13510
▁blasphé	-13511
▁bonheur	-13512
▁bonnude	-13513
▁cegenon	-13514
▁chaleur	-13515
▁chameau	-13516
▁chargée	-13517
▁circonc	-13518
▁comblés	-13519
▁conform	-13520
▁considé	-13521
▁contact	-13522
▁correct	-13523
▁croyiez	-13524
▁dispute	-13525
▁effacer	-13526
▁ensevel	-13527
▁farilla	-13528
▁fassiez	-13529
▁feewiri	-13530
▁feloore	-13531
▁gollude	-13532
▁gunndoo	-13533
▁heewuɓe	-13534
▁hériter	-13535
▁incombe	-13536
▁inscrit	-13537
▁ittugol	-13538
▁jananɓe	-13539
▁jeyaama	-13540
▁kattudi	-13541
▁keneeli	-13542
▁keyeeji	-13543
▁laaɓiri	-13544
▁logagol	-13545
▁meurtri	-13546
▁muuyuno	-13547
▁naamnaa	-13548
▁newaare	-13549
▁nganndi	-13550
▁njorndi	-13551
▁pankare	-13552
▁parenté	-13553
▁parties	-13554
▁passant	-13555
▁permise	-13556
▁propose	-13557
▁redouta	-13558
▁renvers	-13559
▁restent	-13560
▁réjouis	-13561
▁seŋaaki	-13562
▁seŋiima	-13563
▁sommeil	-13564
▁subbunh	-13565
▁suivait	-13566
▁tippiro	-13567
▁travaux	-13568
▁trouble	-13569
▁violent	-13570
▁wowlani	-13571
▁yaltata	-13572
▁yaltude	-13573
▁yejjiti	-13574
▁yuɓɓude	-13575
▁éloigne	-13576
▁ƴettude	-13577
▁ɓennuɗe	-13578
▁ɗamajan	-13579
▁ɗereeji	-13580
Iscariote	-13581
accomplir	-13582
assemblée	-13583
effectuer	-13584
enseigner	-13585
interroge	-13586
obscurité	-13587
▁Antioche	-13588
▁Barabbas	-13589
▁Festuusa	-13590
▁Goowaaɗo	-13591
▁Identifi	-13592
▁Jooɗiiɗo	-13593
▁Juldeere	-13594
▁Marshall	-13595
▁Nanngito	-13596
▁Oliviers	-13597
▁Recevoir	-13598
▁Répondez	-13599
▁Teskinɗe	-13600
▁abandonn	-13601
▁affranch	-13602
▁ailleurs	-13603
▁attendre	-13604
▁bayyinol	-13605
▁corriger	-13606
▁criaient	-13607
▁célestes	-13608
▁darjaaji	-13609
▁desquels	-13610
▁dewindol	-13611
▁disputer	-13612
▁entendez	-13613
▁faisions	-13614
▁familles	-13615
▁fawtiiɗo	-13616
▁fenniino	-13617
▁fowtaare	-13618
▁hawniiɗi	-13619
▁jaabaade	-13620
▁jaabaaki	-13621
▁jeyaaɗum	-13622
▁jiiɓoldu	-13623
▁jippinee	-13624
▁jogitike	-13625
▁justifié	-13626
▁keertine	-13627
▁kuukiiji	-13628
▁laamuuji	-13629
▁lannataa	-13630
▁lollinde	-13631
▁looweede	-13632
▁lorrataa	-13633
▁marchant	-13634
▁moƴƴimɓe	-13635
▁naviguez	-13636
▁njiylawu	-13637
▁nokkuuje	-13638
▁outranci	-13639
▁ouvriers	-13640
▁paltooje	-13641
▁partagez	-13642
▁partagée	-13643
▁persuadé	-13644
▁profiter	-13645
▁rebelles	-13646
▁recevrez	-13647
▁regarder	-13648
▁reproche	-13649
▁secourus	-13650
▁septième	-13651
▁sergents	-13652
▁sonnaaɓe	-13653
▁souffrir	-13654
▁suddiiɗo	-13655
▁supplice	-13656
▁utilisés	-13657
▁visibles	-13658
▁voudrais	-13659
▁ɗoftagol	-13660
Désactiver	-13661
▁Confirmez	-13662
▁Conserver	-13663
▁Ibrahiima	-13664
▁Iskariiyu	-13665
▁Muhammadu	-13666
▁Nullement	-13667
▁Zakariyaa	-13668
▁abandonné	-13669
▁compromis	-13670
▁danndeede	-13671
▁déterminé	-13672
▁détournez	-13673
▁entendant	-13674
▁feɲɲinani	-13675
▁jahannama	-13676
▁kuutorgol	-13677
▁maantorde	-13678
▁meilleurs	-13679
▁mooftirde	-13680
▁ngaynaako	-13681
▁provenant	-13682
▁précédent	-13683
▁présentes	-13684
▁rassemble	-13685
▁repentent	-13686
▁repousser	-13687
▁rébellion	-13688
▁révisions	-13689
▁sentiment	-13690
▁siforaali	-13691
▁testament	-13692
▁timmitere	-13693
▁tombèrent	-13694
▁trompette	-13695
▁véridique	-13696
▁yananaaɓe	-13697
▁yeddondir	-13698
▁ɗaɓɓannde	-13699
allocations	-13700
association	-13701
importation	-13702
▁Cakkitiiɗe	-13703
▁Encryption	-13704
▁Njaajeendi	-13705
▁Nokkuɗinal	-13706
▁République	-13707
▁Yettiniiɗo	-13708
▁adaptative	-13709
▁buggitagol	-13710
▁cakkitiiɗe	-13711
▁choisissez	-13712
▁dewindorɗe	-13713
▁différents	-13714
▁défilement	-13715
▁exactement	-13716
▁fefindiiɗo	-13717
▁hollireede	-13718
▁inattentif	-13719
▁jaɓɓitorde	-13720
▁laatinoɗon	-13721
▁merveilles	-13722
▁moƴƴereeji	-13723
▁méchanceté	-13724
▁neeniraaɓe	-13725
▁permettant	-13726
▁populaires	-13727
▁pèlerinage	-13728
▁rutteteɗon	-13729
▁sakkitorde	-13730
▁seeditaade	-13731
▁télémétrie	-13732
▁ɗakkitorde	-13733
▁ɗaɓɓitanɗe	-13734
ministration	-13735
▁Kafernahuum	-13736
▁Yurdayniwol	-13737
▁compositeur	-13738
▁connaissent	-13739
▁craignaient	-13740
▁karallaagal	-13741
▁pourcentage	-13742
▁prisonniers	-13743
▁promptement	-13744
▁rassemblera	-13745
▁ressemblent	-13746
▁révélations	-13747
▁suppression	-13748
▁teeŋtinaama	-13749
▁appréciation	-13750
▁organisation	-13751
▁responsables	-13752
▁réinitialisé	-13753
▁communication	-13754
▁correspondant	-13755
▁ɓanngannduyee	-13756
Yahuudiyankeeɓe	-13757
▁supplémentaire	-13758
▁Synchronisation	-13759
▁Yahuudiyankeejo	-13760
-1	-13761
-3	-13762
.1	-13763
.5	-13764
2,	-13765
>”	-13766
At	-13767
Ng	-13768
PN	-13769
PR	-13770
QL	-13771
ry	-13772
}]	-13773
ân	-13774
'>{	-13775
191	-13776
Aad	-13777
Ado	-13778
Aut	-13779
Aɗa	-13780
Bit	-13781
CTI	-13782
Con	-13783
ERR	-13784
Jam	-13785
Oui	-13786
Pol	-13787
Yaa	-13788
akp	-13789
alt	-13790
ape	-13791
cal	-13792
cut	-13793
eno	-13794
feu	-13795
fxa	-13796
haa	-13797
hos	-13798
ida	-13799
inv	-13800
isu	-13801
iɗa	-13802
jaa	-13803
jol	-13804
kas	-13805
kob	-13806
max	-13807
ram	-13808
roo	-13809
rut	-13810
tml	-13811
top	-13812
trs	-13813
wid	-13814
éte	-13815
ûte	-13816
▁17	-13817
▁Bi	-13818
▁Do	-13819
▁Em	-13820
▁Lé	-13821
▁US	-13822
▁ny	-13823
-256	-13824
>/</	-13825
Asie	-13826
OCKS	-13827
Peer	-13828
aahi	-13829
abun	-13830
acez	-13831
adii	-13832
agré	-13833
akal	-13834
area	-13835
ares	-13836
ayru	-13837
aɓɓe	-13838
beta	-13839
cule	-13840
desc	-13841
elch	-13842
guli	-13843
haal	-13844
hone	-13845
hôte	-13846
idii	-13847
iert	-13848
inar	-13849
incl	-13850
inor	-13851
irik	-13852
iriy	-13853
irte	-13854
jjit	-13855
levé	-13856
meta	-13857
olla	-13858
onal	-13859
ouff	-13860
oyri	-13861
pied	-13862
rase	-13863
riel	-13864
sing	-13865
site	-13866
tabl	-13867
tele	-13868
ulte	-13869
ummb	-13870
unne	-13871
voir	-13872
édou	-13873
êtez	-13874
▁({{	-13875
▁50%	-13876
▁Add	-13877
▁Ama	-13878
▁Bak	-13879
▁Chu	-13880
▁Cri	-13881
▁Dou	-13882
▁Duŋ	-13883
▁Gaa	-13884
▁Gar	-13885
▁JIT	-13886
▁Jel	-13887
▁Juu	-13888
▁Kol	-13889
▁Maj	-13890
▁Mii	-13891
▁Nge	-13892
▁PSM	-13893
▁Pam	-13894
▁Pin	-13895
▁Res	-13896
▁SQL	-13897
▁Saw	-13898
▁Saɗ	-13899
▁Sey	-13900
▁Tan	-13901
▁Tyr	-13902
▁Udd	-13903
▁Wul	-13904
▁XUL	-13905
▁Yew	-13906
▁You	-13907
▁Zéb	-13908
▁aay	-13909
▁due	-13910
▁dér	-13911
▁etc	-13912
▁fun	-13913
▁fur	-13914
▁jil	-13915
▁keb	-13916
▁kir	-13917
▁kos	-13918
▁lav	-13919
▁lid	-13920
▁max	-13921
▁nsI	-13922
▁oui	-13923
▁paa	-13924
▁puy	-13925
▁tug	-13926
▁vus	-13927
▁ñeñ	-13928
▁ɓiɗ	-13929
▁ɗal	-13930
▁ɗur	-13931
>).</	-13932
Addee	-13933
Attrs	-13934
ERROR	-13935
abatt	-13936
accii	-13937
accro	-13938
accus	-13939
acité	-13940
amaan	-13941
anant	-13942
annji	-13943
antoo	-13944
appli	-13945
arder	-13946
aurai	-13947
biles	-13948
block	-13949
deeji	-13950
deejo	-13951
duɗaa	-13952
eewii	-13953
fient	-13954
fulde	-13955
gging	-13956
idité	-13957
ignit	-13958
iliti	-13959
inent	-13960
ingii	-13961
inois	-13962
inuer	-13963
istés	-13964
itoyi	-13965
iyaan	-13966
journ	-13967
kiila	-13968
legal	-13969
lorez	-13970
nataa	-13971
ndike	-13972
nique	-13973
noode	-13974
nooɗo	-13975
noɗaa	-13976
nuuji	-13977
oires	-13978
ondre	-13979
orcel	-13980
orton	-13981
outte	-13982
perty	-13983
perçu	-13984
prême	-13985
reset	-13986
taano	-13987
tiigu	-13988
titué	-13989
tokol	-13990
toton	-13991
users	-13992
vatar	-13993
width	-13994
çâmes	-13995
école	-13996
écuta	-13997
ñorde	-13998
ɗiiɗe	-13999
▁Apol	-14000
▁Béth	-14001
▁Deux	-14002
▁Faan	-14003
▁Galo	-14004
▁Gere	-14005
▁Haut	-14006
▁Incl	-14007
▁Inde	-14008
▁Joop	-14009
▁Juda	-14010
▁Kool	-14011
▁Layl	-14012
▁Laɓɓ	-14013
▁Mooɓ	-14014
▁Muuy	-14015
▁Ngel	-14016
▁Njal	-14017
▁Pens	-14018
▁Ques	-14019
▁Requ	-14020
▁Sabb	-14021
▁Sois	-14022
▁Tesk	-14023
▁aisé	-14024
▁araa	-14025
▁asse	-14026
▁bakk	-14027
▁bron	-14028
▁circ	-14029
▁célè	-14030
▁deƴƴ	-14031
▁dimb	-14032
▁dool	-14033
▁ence	-14034
▁hash	-14035
▁hayr	-14036
▁hent	-14037
▁hesu	-14038
▁hett	-14039
▁hisn	-14040
▁hodd	-14041
▁html	-14042
▁hula	-14043
▁huɗo	-14044
▁impr	-14045
▁juré	-14046
▁juut	-14047
▁kiiɗ	-14048
▁lavé	-14049
▁lois	-14050
▁maïs	-14051
▁meta	-14052
▁nafq	-14053
▁niiw	-14054
▁open	-14055
▁radi	-14056
▁rawn	-14057
▁rejo	-14058
▁renn	-14059
▁rutt	-14060
▁siɗɗ	-14061
▁sooy	-14062
▁soul	-14063
▁soɓɓ	-14064
▁suur	-14065
▁tien	-14066
▁tono	-14067
▁uddi	-14068
▁vier	-14069
▁ware	-14070
▁wirn	-14071
▁woop	-14072
▁yaaɓ	-14073
▁yeen	-14074
▁yoll	-14075
▁yoor	-14076
▁Êtes	-14077
▁Ɓeya	-14078
▁ɓetu	-14079
▁ɓure	-14080
▁ɓuɓɓ	-14081
Bitmap	-14082
ateeri	-14083
cateur	-14084
coding	-14085
commun	-14086
cripts	-14087
dedans	-14088
engine	-14089
esclav	-14090
etanii	-14091
inaaɗi	-14092
irayno	-14093
iriipa	-14094
istait	-14095
itesse	-14096
iteurs	-14097
itinde	-14098
itoɗon	-14099
mption	-14100
objets	-14101
ontere	-14102
orteur	-14103
rances	-14104
tagram	-14105
tenant	-14106
tiinde	-14107
yaagal	-14108
équipe	-14109
▁Bédou	-14110
▁Captu	-14111
▁Kesum	-14112
▁Maali	-14113
▁Manif	-14114
▁Melch	-14115
▁Nawor	-14116
▁Neene	-14117
▁SOCKS	-14118
▁Saali	-14119
▁Sidon	-14120
▁Sosaa	-14121
▁Table	-14122
▁Tiiri	-14123
▁Titre	-14124
▁Toɗɗo	-14125
▁Voyez	-14126
▁adday	-14127
▁armée	-14128
▁avais	-14129
▁aviez	-14130
▁ayons	-14131
▁bawɗe	-14132
▁butin	-14133
▁coomd	-14134
▁coups	-14135
▁crime	-14136
▁croir	-14137
▁dandu	-14138
▁dente	-14139
▁dieux	-14140
▁doigt	-14141
▁duumo	-14142
▁faill	-14143
▁famɗi	-14144
▁fefin	-14145
▁fewti	-14146
▁fléch	-14147
▁gasii	-14148
▁hauts	-14149
▁himme	-14150
▁hoolo	-14151
▁hulon	-14152
▁immin	-14153
▁invis	-14154
▁juhal	-14155
▁keyee	-14156
▁koltu	-14157
▁leñol	-14158
▁légit	-14159
▁maayu	-14160
▁marɗo	-14161
▁mudda	-14162
▁nefaa	-14163
▁noddu	-14164
▁okkay	-14165
▁procl	-14166
▁remar	-14167
▁remis	-14168
▁respl	-14169
▁saddu	-14170
▁safaa	-14171
▁saine	-14172
▁semer	-14173
▁shape	-14174
▁siɓɓe	-14175
▁suuɗo	-14176
▁série	-14177
▁tagaa	-14178
▁tinnd	-14179
▁venez	-14180
▁vivra	-14181
▁wanah	-14182
▁woɗɗi	-14183
▁wulla	-14184
▁yaade	-14185
▁yaafo	-14186
▁yahee	-14187
▁yaron	-14188
▁yiɗir	-14189
▁yuurn	-14190
▁Ñawnd	-14191
▁ñiiɓi	-14192
▁ɓuraa	-14193
Content	-14194
Louange	-14195
abbeeli	-14196
alisées	-14197
antoore	-14198
counter	-14199
country	-14200
default	-14201
dulgent	-14202
inangol	-14203
intinɗo	-14204
itement	-14205
ndaandi	-14206
notaako	-14207
ondirɗe	-14208
section	-14209
ulnorde	-14210
usement	-14211
èveront	-14212
écouter	-14213
éditeur	-14214
▁Access	-14215
▁Aperçu	-14216
▁Bawgal	-14217
▁Calcul	-14218
▁Espace	-14219
▁Format	-14220
▁Kartal	-14221
▁Keftin	-14222
▁Langue	-14223
▁Maakan	-14224
▁MathML	-14225
▁Mbaydi	-14226
▁Mooftu	-14227
▁Répons	-14228
▁Tandis	-14229
▁aawtoo	-14230
▁abonde	-14231
▁absent	-14232
▁addata	-14233
▁amener	-14234
▁aranun	-14235
▁arbres	-14236
▁aurais	-14237
▁averti	-14238
▁blancs	-14239
▁buntii	-14240
▁cacher	-14241
▁classe	-14242
▁concéd	-14243
▁create	-14244
▁duquel	-14245
▁découv	-14246
▁défini	-14247
▁effort	-14248
▁effray	-14249
▁endomm	-14250
▁expose	-14251
▁eɓɓind	-14252
▁feƴƴit	-14253
▁fijind	-14254
▁fraude	-14255
▁gallii	-14256
▁gangol	-14257
▁gootun	-14258
▁guérie	-14259
▁height	-14260
▁hollay	-14261
▁impudi	-14262
▁inflig	-14263
▁inquié	-14264
▁jonnit	-14265
▁jortii	-14266
▁jugera	-14267
▁laamii	-14268
▁laissa	-14269
▁lampes	-14270
▁lollin	-14271
▁luttin	-14272
▁maltra	-14273
▁marqué	-14274
▁momtii	-14275
▁montré	-14276
▁nanndu	-14277
▁ndaaru	-14278
▁njangu	-14279
▁nuages	-14280
▁origin	-14281
▁penser	-14282
▁plante	-14283
▁pousse	-14284
▁priait	-14285
▁prince	-14286
▁refusé	-14287
▁regret	-14288
▁sabbii	-14289
▁saluta	-14290
▁seedam	-14291
▁seriez	-14292
▁souper	-14293
▁stable	-14294
▁sépare	-14295
▁timmal	-14296
▁traite	-14297
▁trembl	-14298
▁tribus	-14299
▁tribut	-14300
▁voleur	-14301
▁voyais	-14302
▁warira	-14303
▁welata	-14304
▁wontir	-14305
▁wonɗen	-14306
▁woɗngo	-14307
▁yiɗuɗo	-14308
▁Ñaamee	-14309
▁écrite	-14310
▁ñannde	-14311
▁Ɗamuya	-14312
▁ɗaanii	-14313
▁ɗuurno	-14314
Yettoore	-14315
alliance	-14316
anngoɗin	-14317
entendre	-14318
findeejo	-14319
iniraama	-14320
▁Ananias	-14321
▁Binndol	-14322
▁Djallon	-14323
▁Essayer	-14324
▁Farayse	-14325
▁Gerngal	-14326
▁Ignorer	-14327
▁License	-14328
▁Masiŋel	-14329
▁Ndaarii	-14330
▁Obtenez	-14331
▁Quantum	-14332
▁Revenir	-14333
▁Tinndin	-14334
▁Tintine	-14335
▁Zébédée	-14336
▁aadaaji	-14337
▁accataa	-14338
▁acheter	-14339
▁aimeras	-14340
▁aumônes	-14341
▁aynooɓe	-14342
▁baɗngol	-14343
▁blanche	-14344
▁bloqués	-14345
▁bouches	-14346
▁cariiɗe	-14347
▁chasser	-14348
▁complet	-14349
▁complot	-14350
▁contrat	-14351
▁debeeje	-14352
▁deeƴere	-14353
▁demeuré	-14354
▁ellaaji	-14355
▁emporta	-14356
▁enverra	-14357
▁envoyée	-14358
▁faliima	-14359
▁fanɗude	-14360
▁fooluɓe	-14361
▁formere	-14362
▁frappés	-14363
▁geyngol	-14364
▁golluɗo	-14365
▁gomɗina	-14366
▁haŋkadi	-14367
▁heɗagol	-14368
▁hittuɗe	-14369
▁hokkude	-14370
▁honneur	-14371
▁honnête	-14372
▁hucciti	-14373
▁imminii	-14374
▁jalkita	-14375
▁joginoo	-14376
▁katojin	-14377
▁kibaaru	-14378
▁kuurgal	-14379
▁lanndii	-14380
▁majjude	-14381
▁maloore	-14382
▁masiibo	-14383
▁mejaare	-14384
▁mobiles	-14385
▁moisson	-14386
▁mottind	-14387
▁nangira	-14388
▁nanunoo	-14389
▁nanuɗon	-14390
▁newanii	-14391
▁ordonna	-14392
▁ordonne	-14393
▁parfois	-14394
▁parvenu	-14395
▁passage	-14396
▁penaale	-14397
▁potenti	-14398
▁pourras	-14399
▁prodige	-14400
▁qualité	-14401
▁rafferm	-14402
▁rebelle	-14403
▁recevez	-14404
▁recours	-14405
▁rendant	-14406
▁rendons	-14407
▁ruttoto	-14408
▁récente	-14409
▁servira	-14410
▁sifaade	-14411
▁sincère	-14412
▁suriire	-14413
▁tableau	-14414
▁tagugol	-14415
▁talents	-14416
▁tawiino	-14417
▁terrest	-14418
▁tiiɗuɗe	-14419
▁troupes	-14420
▁trouvez	-14421
▁trésors	-14422
▁uddaama	-14423
▁ugginii	-14424
▁weltora	-14425
▁wonataa	-14426
▁wonunde	-14427
▁yaadiri	-14428
▁yaarude	-14429
▁yiyeede	-14430
▁yoɓirta	-14431
▁éclaire	-14432
▁émanant	-14433
direction	-14434
esɗitinaa	-14435
tistiques	-14436
▁Agiriipa	-14437
▁Aussitôt	-14438
▁Bédouins	-14439
▁Cakkital	-14440
▁Empêcher	-14441
▁Exchange	-14442
▁Hooreeɓe	-14443
▁Kuukiije	-14444
▁Meilleur	-14445
▁Nootorol	-14446
▁Rappelez	-14447
▁Regardez	-14448
▁Response	-14449
▁Surroowo	-14450
▁Tawreeta	-14451
▁Tiituusa	-14452
▁Travaill	-14453
▁Tuugorde	-14454
▁acceptez	-14455
▁ancienne	-14456
▁attachés	-14457
▁atteinte	-14458
▁bénéfici	-14459
▁certaine	-14460
▁coupable	-14461
▁craindre	-14462
▁dartaade	-14463
▁dartiima	-14464
▁dokkorol	-14465
▁délivrer	-14466
▁effectué	-14467
▁extermin	-14468
▁faamataa	-14469
▁fammeere	-14470
▁firlitde	-14471
▁glorieux	-14472
▁haalooɓe	-14473
▁hawrugol	-14474
▁hendaade	-14475
▁heɓantaa	-14476
▁hoolaaka	-14477
▁hormante	-14478
▁humpitii	-14479
▁interdis	-14480
▁jiylorɗe	-14481
▁kasannge	-14482
▁kunndule	-14483
▁kuutorto	-14484
▁landaade	-14485
▁magistra	-14486
▁marchent	-14487
▁naatnude	-14488
▁nandolla	-14489
▁nganndaa	-14490
▁paraîtra	-14491
▁pareille	-14492
▁peewaani	-14493
▁pentoowo	-14494
▁piilanɗe	-14495
▁portokol	-14496
▁probable	-14497
▁puissent	-14498
▁purifier	-14499
▁regardez	-14500
▁seediiɓe	-14501
▁seeditii	-14502
▁siyneede	-14503
▁surnommé	-14504
▁tenaient	-14505
▁tiitoore	-14506
▁touchant	-14507
▁vedettes	-14508
▁vérifiez	-14509
▁wayliima	-14510
▁waɗirani	-14511
▁wondiɗɗo	-14512
▁yaltinde	-14513
▁yaltugol	-14514
▁yettugol	-14515
▁Éléments	-14516
▁écoutent	-14517
▁ɓenninii	-14518
▁ɓorniiɓe	-14519
▁ɗoftiiɗo	-14520
Connection	-14521
emmenèrent	-14522
instantané	-14523
▁Chrétiens	-14524
▁Laylaytol	-14525
▁Maandeeji	-14526
▁Questions	-14527
▁Transport	-14528
▁approuvée	-14529
▁attendent	-14530
▁communion	-14531
▁construis	-14532
▁contraint	-14533
▁effectuée	-14534
▁excellent	-14535
▁faannuuji	-14536
▁fittaandu	-14537
▁fiyakuuji	-14538
▁fonctions	-14539
▁gollirgel	-14540
▁goondooje	-14541
▁ignorance	-14542
▁important	-14543
▁jippiniri	-14544
▁laaɓungal	-14545
▁lollingol	-14546
▁lootaynoo	-14547
▁mottondir	-14548
▁musulmans	-14549
▁muuseendi	-14550
▁navigator	-14551
▁ngeenaari	-14552
▁nguleendi	-14553
▁pamɗungol	-14554
▁paraboles	-14555
▁pardonnés	-14556
▁permanent	-14557
▁principes	-14558
▁publicité	-14559
▁regardent	-14560
▁restreint	-14561
▁saɗteende	-14562
▁sortirent	-14563
▁tourments	-14564
▁waɗanaali	-14565
▁évidentes	-14566
▁ɓatakeeji	-14567
inscription	-14568
▁Enregistre	-14569
▁Exceptions	-14570
▁Extensions	-14571
▁Jaabawuuji	-14572
▁Surveiller	-14573
▁apprennent	-14574
▁avertisses	-14575
▁compassion	-14576
▁conservera	-14577
▁coomdangol	-14578
▁couverture	-14579
▁difficulté	-14580
▁délivrance	-14581
▁entreprise	-14582
▁expériment	-14583
▁fillitanii	-14584
▁hurminaama	-14585
▁huutoraama	-14586
▁importante	-14587
▁interrogés	-14588
▁laatanooki	-14589
▁messagerie	-14590
▁perversité	-14591
▁prisonnier	-14592
▁rappellent	-14593
▁représente	-14594
▁ressuscite	-14595
▁sadducéens	-14596
▁spirituels	-14597
▁stratagème	-14598
▁surveillez	-14599
▁trouveront	-14600
▁téléchargé	-14601
▁vainqueurs	-14602
▁vulnérable	-14603
▁yewtereeji	-14604
▁Importation	-14605
▁MediaStream	-14606
▁Ndenndaandi	-14607
▁Permissions	-14608
▁Utilisation	-14609
▁bénédiction	-14610
▁connaissant	-14611
▁description	-14612
▁emplacement	-14613
▁enregistrez	-14614
▁enregistrée	-14615
▁hakkillaaji	-14616
▁importantes	-14617
▁incirconcis	-14618
▁ouvertement	-14619
▁paralytique	-14620
▁prosternent	-14621
▁similitudes	-14622
▁souffrances	-14623
▁tremblement	-14624
AttributeNode	-14625
▁annonciateur	-14626
▁associateurs	-14627
▁avertisseurs	-14628
▁commentaires	-14629
▁généralement	-14630
▁installation	-14631
▁satteendeeji	-14632
▁verrouillage	-14633
▁Modifications	-14634
▁appartiennent	-14635
▁compatibilité	-14636
▁junuubankeeɓe	-14637
Gereekiyankeeɓe	-14638
accomplissement	-14639
▁multiprocessus	-14640
▁transgresseurs	-14641
21	-14642
>:	-14643
Ad	-14644
DO	-14645
OI	-14646
OU	-14647
Où	-14648
ST	-14649
añ	-14650
ho	-14651
ju	-14652
},	-14653
œu	-14654
ƴa	-14655
’,	-14656
”,	-14657
▁+	-14658
="%	-14659
AME	-14660
Aru	-14661
Mee	-14662
OST	-14663
Sal	-14664
Ver	-14665
alk	-14666
ave	-14667
aïb	-14668
dig	-14669
dir	-14670
exc	-14671
fii	-14672
irl	-14673
ksi	-14674
nov	-14675
orp	-14676
owl	-14677
pii	-14678
pts	-14679
roi	-14680
rui	-14681
sés	-14682
tée	-14683
uds	-14684
ulg	-14685
vus	-14686
xed	-14687
yre	-14688
âge	-14689
înt	-14690
ŋte	-14691
▁#%	-14692
▁--	-14693
▁2%	-14694
▁45	-14695
▁:\	-14696
▁CK	-14697
▁El	-14698
▁Hâ	-14699
▁Ji	-14700
▁Mé	-14701
▁ej	-14702
▁ii	-14703
▁iv	-14704
▁}:	-14705
▁“&	-14706
.;#1	-14707
Code	-14708
Hiɗa	-14709
Nana	-14710
acqu	-14711
agir	-14712
alog	-14713
aper	-14714
avas	-14715
ayni	-14716
aɓun	-14717
cité	-14718
clés	-14719
comp	-14720
eewo	-14721
fawi	-14722
gies	-14723
hiit	-14724
honn	-14725
imɗi	-14726
irig	-14727
iyaa	-14728
iété	-14729
kkit	-14730
laɓɓ	-14731
loge	-14732
oncé	-14733
onga	-14734
ongo	-14735
onie	-14736
orme	-14737
oroo	-14738
orth	-14739
oɗɗu	-14740
phie	-14741
pref	-14742
rain	-14743
seur	-14744
sunn	-14745
tier	-14746
tége	-14747
uier	-14748
uise	-14749
umaa	-14750
urés	-14751
venu	-14752
ware	-14753
work	-14754
ypes	-14755
çonn	-14756
édez	-14757
ɓand	-14758
▁%4$	-14759
▁500	-14760
▁Aux	-14761
▁Ber	-14762
▁Def	-14763
▁Doo	-14764
▁Fem	-14765
▁Fut	-14766
▁Han	-14767
▁Her	-14768
▁Jay	-14769
▁Jer	-14770
▁Jet	-14771
▁Jow	-14772
▁Koy	-14773
▁Lel	-14774
▁Mec	-14775
▁Net	-14776
▁Nok	-14777
▁Pot	-14778
▁Pri	-14779
▁QUI	-14780
▁Roi	-14781
▁Sta	-14782
▁Suu	-14783
▁Tib	-14784
▁Wir	-14785
▁Yar	-14786
▁adi	-14787
▁alb	-14788
▁cav	-14789
▁err	-14790
▁gos	-14791
▁her	-14792
▁huɗ	-14793
▁inu	-14794
▁jig	-14795
▁kom	-14796
▁lac	-14797
▁lur	-14798
▁lép	-14799
▁mac	-14800
▁paw	-14801
▁qab	-14802
▁saŋ	-14803
▁sci	-14804
▁sod	-14805
▁tac	-14806
▁vag	-14807
▁wal	-14808
▁ôté	-14809
▁Ɓam	-14810
▁Ɗii	-14811
▁Ɗuu	-14812
▁ɓol	-14813
▁ɲam	-14814
Banii	-14815
Isaac	-14816
aanii	-14817
ajout	-14818
arice	-14819
blier	-14820
ceaux	-14821
culer	-14822
daali	-14823
drait	-14824
drons	-14825
dunoo	-14826
duuna	-14827
eende	-14828
eeter	-14829
eneur	-14830
enons	-14831
erais	-14832
eries	-14833
eteno	-14834
ettol	-14835
haadi	-14836
illés	-14837
mbere	-14838
mdash	-14839
media	-14840
ookie	-14841
oordi	-14842
orani	-14843
ornde	-14844
osité	-14845
reaux	-14846
risie	-14847
roite	-14848
roits	-14849
taldu	-14850
teeɗi	-14851
tinoo	-14852
torii	-14853
téris	-14854
ugges	-14855
unngu	-14856
verse	-14857
vième	-14858
élève	-14859
érant	-14860
érodi	-14861
ɗeejo	-14862
▁Arab	-14863
▁Aree	-14864
▁Ceer	-14865
▁Cuur	-14866
▁Cyri	-14867
▁Duum	-14868
▁Gann	-14869
▁Jiil	-14870
▁Jonn	-14871
▁Laaɓ	-14872
▁Labé	-14873
▁Muum	-14874
▁Neɗɗ	-14875
▁Riiw	-14876
▁Soit	-14877
▁Stoc	-14878
▁Suur	-14879
▁Syri	-14880
▁Tage	-14881
▁Taro	-14882
▁Tikk	-14883
▁Waɗi	-14884
▁Woow	-14885
▁Wopp	-14886
▁Yaaj	-14887
▁Yiyl	-14888
▁acce	-14889
▁adan	-14890
▁bada	-14891
▁bela	-14892
▁beru	-14893
▁boir	-14894
▁born	-14895
▁boue	-14896
▁brut	-14897
▁bugo	-14898
▁clic	-14899
▁cria	-14900
▁dewo	-14901
▁ench	-14902
▁ennd	-14903
▁fall	-14904
▁fawa	-14905
▁feli	-14906
▁foññ	-14907
▁gasi	-14908
▁gêne	-14909
▁hand	-14910
▁harm	-14911
▁hayf	-14912
▁heɲa	-14913
▁hiis	-14914
▁hirs	-14915
▁hisi	-14916
▁idol	-14917
▁inne	-14918
▁insp	-14919
▁jaal	-14920
▁jind	-14921
▁joug	-14922
▁kedd	-14923
▁kump	-14924
▁mbaa	-14925
▁mbob	-14926
▁munc	-14927
▁ndut	-14928
▁ngaa	-14929
▁nunɗ	-14930
▁ouïe	-14931
▁plat	-14932
▁rage	-14933
▁raɗo	-14934
▁repe	-14935
▁saaw	-14936
▁semb	-14937
▁sila	-14938
▁sonk	-14939
▁symb	-14940
▁taro	-14941
▁taƴi	-14942
▁toln	-14943
▁user	-14944
▁vall	-14945
▁veau	-14946
▁vive	-14947
▁wahy	-14948
▁welt	-14949
▁yagg	-14950
▁yiya	-14951
▁}.</	-14952
▁État	-14953
▁ñeeñ	-14954
▁ñukk	-14955
▁Ɓooy	-14956
▁ƴeeŋ	-14957
▁ɓurn	-14958
▁ɗiin	-14959
▁ɗowa	-14960
▁ɲemb	-14961
Aadama	-14962
Change	-14963
Gloire	-14964
Hiiyii	-14965
akkilo	-14966
aminer	-14967
anaano	-14968
anaaɗi	-14969
anndaa	-14970
atrice	-14971
autrui	-14972
averne	-14973
ercase	-14974
frames	-14975
haitez	-14976
hériti	-14977
indini	-14978
indiro	-14979
inoore	-14980
inoɗon	-14981
isiyee	-14982
isseur	-14983
issiez	-14984
istaan	-14985
itooɗe	-14986
neille	-14987
onnect	-14988
orance	-14989
plugin	-14990
quatre	-14991
source	-14992
tangol	-14993
énorme	-14994
ŋkooje	-14995
ɗinnde	-14996
▁Ajout	-14997
▁Basiy	-14998
▁Cause	-14999
▁Ceŋol	-15000
▁Darto	-15001
▁Diina	-15002
▁Domin	-15003
▁Duuɓi	-15004
▁Début	-15005
▁Europ	-15006
▁Faatu	-15007
▁Hokku	-15008
▁Ismaa	-15009
▁Laabi	-15010
▁Ligne	-15011
▁Moham	-15012
▁Moins	-15013
▁Pilot	-15014
▁Porto	-15015
▁Rempl	-15016
▁Sauve	-15017
▁Sella	-15018
▁Shift	-15019
▁Temps	-15020
▁Tenez	-15021
▁Trier	-15022
▁Yaafo	-15023
▁Yantu	-15024
▁Yiɗaa	-15025
▁adoré	-15026
▁anday	-15027
▁añuɓe	-15028
▁balla	-15029
▁banni	-15030
▁bonna	-15031
▁bénév	-15032
▁cenɗe	-15033
▁charn	-15034
▁chien	-15035
▁cokol	-15036
▁copié	-15037
▁damal	-15038
▁darni	-15039
▁domen	-15040
▁dress	-15041
▁décri	-15042
▁emmen	-15043
▁excès	-15044
▁feƴƴi	-15045
▁firta	-15046
▁foddi	-15047
▁forts	-15048
▁fotay	-15049
▁fréqu	-15050
▁fuɗɗi	-15051
▁gennd	-15052
▁gonɗo	-15053
▁grave	-15054
▁haine	-15055
▁happu	-15056
▁haɓɓi	-15057
▁haɗno	-15058
▁hersa	-15059
▁heɓoy	-15060
▁hindi	-15061
▁hondu	-15062
▁hooli	-15063
▁humii	-15064
▁hundi	-15065
▁huɓɓi	-15066
▁illic	-15067
▁incap	-15068
▁ittaa	-15069
▁jeyɗo	-15070
▁kecce	-15071
▁keewi	-15072
▁keɓal	-15073
▁kiise	-15074
▁korɗo	-15075
▁lampe	-15076
▁lasli	-15077
▁lepta	-15078
▁léger	-15079
▁maaje	-15080
▁mabba	-15081
▁marke	-15082
▁masse	-15083
▁mehre	-15084
▁miran	-15085
▁modes	-15086
▁moggo	-15087
▁mokob	-15088
▁naada	-15089
▁nawri	-15090
▁nefee	-15091
▁njipp	-15092
▁noble	-15093
▁nuits	-15094
▁nœuds	-15095
▁obéir	-15096
▁peaux	-15097
▁peera	-15098
▁plaît	-15099
▁redem	-15100
▁ronku	-15101
▁satti	-15102
▁seert	-15103
▁serti	-15104
▁sèche	-15105
▁tawɓe	-15106
▁tenez	-15107
▁tooñi	-15108
▁tress	-15109
▁uddii	-15110
▁vains	-15111
▁vêtus	-15112
▁watte	-15113
▁waɗti	-15114
▁windi	-15115
▁wonee	-15116
▁wuren	-15117
▁éparg	-15118
▁étais	-15119
▁ƴettu	-15120
▁ɓalal	-15121
▁ɓundu	-15122
aaniiya	-15123
accorde	-15124
annonce	-15125
annooɓe	-15126
anteeji	-15127
araison	-15128
araîtra	-15129
avertir	-15130
enaires	-15131
esclave	-15132
faction	-15133
iendrai	-15134
injiila	-15135
irmités	-15136
itaande	-15137
lamique	-15138
ortewol	-15139
oyaagal	-15140
toongel	-15141
uraient	-15142
▁Allons	-15143
▁Annabi	-15144
▁Caggal	-15145
▁Canvas	-15146
▁Caïphe	-15147
▁Chaîne	-15148
▁Couper	-15149
▁Encore	-15150
▁Janngu	-15151
▁Keɓtin	-15152
▁Kiisol	-15153
▁Kornel	-15154
▁Madyan	-15155
▁Mecque	-15156
▁Pharis	-15157
▁Rogere	-15158
▁Sewnde	-15159
▁Seŋoro	-15160
▁Sujets	-15161
▁Winndu	-15162
▁Worker	-15163
▁abomin	-15164
▁accita	-15165
▁advenu	-15166
▁advers	-15167
▁ancien	-15168
▁angiri	-15169
▁animal	-15170
▁annama	-15171
▁anndin	-15172
▁aranol	-15173
▁argent	-15174
▁asakal	-15175
▁avares	-15176
▁baalii	-15177
▁bonnii	-15178
▁caatal	-15179
▁canvas	-15180
▁coller	-15181
▁comblé	-15182
▁cornes	-15183
▁couper	-15184
▁courut	-15185
▁dartii	-15186
▁denier	-15187
▁dewgal	-15188
▁diminu	-15189
▁dissim	-15190
▁divisé	-15191
▁domain	-15192
▁démoni	-15193
▁efface	-15194
▁effacé	-15195
▁enrich	-15196
▁fautes	-15197
▁foolii	-15198
▁forter	-15199
▁frappé	-15200
▁fuites	-15201
▁gadano	-15202
▁genoux	-15203
▁gueule	-15204
▁hatonj	-15205
▁hawtii	-15206
▁haynii	-15207
▁hollir	-15208
▁impies	-15209
▁imposé	-15210
▁interv	-15211
▁invité	-15212
▁jannge	-15213
▁jibini	-15214
▁jogori	-15215
▁jokkaa	-15216
▁joɗɗin	-15217
▁jugent	-15218
▁keewal	-15219
▁kohowo	-15220
▁lament	-15221
[...]
